[PAD]
[CLS]
[SEP]
[MASK]
，
的
、
一
人
有
是
在
中
为
和
了
不
年
学
大
国
生
以
“
”
作
业
个
上
用
,
地
会
成
发
工
时
于
理
出
行
要
.
等
他
到
之
这
可
后
家
对
能
公
与
》
《
主
方
分
经
来
全
其
部
多
产
自
文
高
动
进
法
化
：
我
面
）
（
实
教
建
体
而
长
子
下
现
开
本
力
定
性
过
设
合
小
同
机
市
品
水
新
内
事
也
种
及
制
入
所
心
务
就
管
们
得
展
重
民
加
区
物
者
通
天
政
三
电
关
度
第
名
术
最
系
月
外
资
日
代
员
如
间
位
并
书
科
村
应
量
道
前
当
无
里
相
平
从
计
提
保
任
程
技
都
研
十
基
特
好
被
或
目
将
使
山
二
说
数
点
明
情
元
着
收
组
然
美
各
由
场
金
形
农
期
因
表
此
色
起
还
立
世
安
活
专
质
1
规
社
万
信
西
统
结
路
利
次
南
式
意
级
常
师
校
你
育
果
究
司
服
门
海
导
流
项
她
总
处
两
传
东
正
省
院
户
手
具
2
原
强
北
向
先
但
米
城
企
件
风
军
身
更
知
已
气
战
至
单
口
集
创
解
四
标
交
比
商
论
界
题
变
花
3
改
类
运
指
型
调
女
神
接
造
受
广
只
委
去
共
治
达
持
条
网
头
构
县
些
该
又
那
想
样
办
济
5
格
责
车
很
施
求
己
光
精
林
完
爱
线
参
少
积
清
看
优
报
王
直
没
每
据
游
效
感
五
影
别
获
领
称
选
供
乐
老
么
台
问
划
带
器
源
织
放
深
备
视
白
功
取
装
营
见
记
环
队
节
准
石
它
回
历
负
真
增
医
联
做
职
容
士
包
义
观
团
病
4
府
息
则
考
料
华
州
语
证
整
让
江
史
空
验
需
支
命
给
离
认
艺
较
土
古
养
才
境
推
把
均
图
际
斯
近
片
局
修
字
德
权
步
始
复
转
协
即
打
画
投
决
何
约
反
quot
费
议
护
极
河
房
查
布
思
干
价
儿
非
马
党
奖
模
故
编
音
范
识
率
存
引
客
属
评
采
尔
配
镇
室
再
案
监
习
注
根
克
演
食
族
示
球
状
青
号
张
百
素
首
易
热
阳
今
园
防
版
太
乡
英
6
材
列
便
写
住
置
层
助
确
试
难
承
象
居
10
黄
快
断
维
却
红
速
连
众
0
细
态
话
周
言
药
培
血
亩
龙
越
值
几
边
读
未
曾
测
算
京
景
余
站
低
温
消
必
切
依
随
且
志
卫
域
照
许
限
著
销
落
足
适
争
策
8
控
武
按
7
初
角
核
死
检
富
满
显
审
除
致
亲
占
失
星
章
善
续
千
叶
火
副
告
段
什
声
终
况
走
木
益
戏
独
纪
植
财
群
六
赛
远
拉
亚
密
排
超
像
课
围
往
响
击
疗
念
八
云
险
律
请
革
诗
批
底
压
双
男
训
例
汉
升
拥
势
酒
眼
官
牌
油
曲
友
望
黑
歌
筑
础
香
仅
担
括
湖
严
秀
剧
九
举
执
充
兴
督
博
草
般
李
健
喜
授
普
预
灵
突
良
款
罗
9
微
七
录
朝
飞
宝
令
轻
劳
距
异
简
兵
树
序
候
含
福
尽
留
20
丰
旅
征
临
破
移
篇
抗
典
端
苏
奇
止
康
店
毛
觉
春
售
络
降
板
坚
母
讲
早
印
略
孩
夫
藏
铁
害
互
帝
田
融
皮
宗
岁
载
析
斗
须
伤
12
介
另
00
半
班
馆
味
楼
卡
射
述
杀
波
绿
免
兰
绝
刻
短
察
输
择
综
杂
份
纳
父
词
银
送
座
左
继
固
宣
厂
肉
换
补
税
派
套
欢
播
吸
圆
攻
阿
购
听
右
减
激
巴
背
够
遇
智
玉
找
宽
陈
练
追
毕
彩
软
帮
股
荣
托
予
佛
堂
障
皇
若
守
似
届
待
货
散
额
30
尚
穿
丽
骨
享
差
针
索
稳
宁
贵
酸
液
唐
操
探
玩
促
笔
库
救
虽
久
闻
顶
床
港
鱼
亿
登
11
永
毒
桥
冷
魔
秘
陆
您
童
归
侧
沙
染
封
紧
松
川
刘
15
雄
希
毫
卷
某
季
菜
庭
附
逐
夜
宫
洲
退
顾
尼
胜
剂
纯
舞
遗
苦
梦
挥
航
愿
街
招
矿
夏
盖
献
怎
茶
申
39
吧
脑
亦
吃
频
宋
央
威
厚
块
冲
叫
熟
礼
厅
否
渐
笑
钱
钟
甚
牛
丝
靠
岛
绍
盘
缘
聚
静
雨
氏
圣
顺
唱
刊
阶
困
急
饰
弹
庄
既
野
阴
混
饮
损
齐
末
错
轮
宜
鲜
兼
敌
粉
祖
延
100
钢
辑
欧
硬
甲
诉
册
痛
订
缺
晚
衣
佳
脉
gt
盛
乎
拟
贸
扩
船
仪
谁
警
50
停
席
竞
释
庆
汽
仍
掌
诸
仙
弟
吉
洋
奥
票
危
架
买
径
塔
休
付
恶
雷
怀
秋
借
巨
透
誉
厘
句
跟
胞
婚
幼
烈
峰
寻
君
汇
趣
纸
假
肥
患
杨
雅
罪
谓
亮
脱
寺
烟
判
绩
乱
刚
摄
洞
践
码
启
励
呈
曰
呢
符
哥
媒
疾
坐
雪
孔
倒
旧
菌
岩
鼓
亡
访
症
暗
湾
幸
池
讨
努
露
吗
繁
途
殖
败
蛋
握
刺
耕
洗
沉
概
哈
泛
凡
残
隐
虫
朋
虚
餐
殊
慢
询
蒙
孙
谈
鲁
裂
贴
污
漫
谷
违
泉
拿
森
横
扬
键
膜
迁
尤
涉
净
诚
折
冰
械
拍
梁
沿
避
吴
惊
犯
灭
湿
迷
姓
阅
灯
妇
触
冠
答
俗
档
尊
谢
措
筹
竟
韩
签
剑
鉴
灾
贯
迹
洛
沟
束
翻
巧
坏
弱
零
壁
枝
映
恩
抓
屋
呼
脚
绘
40
淡
辖
2010
伊
粒
欲
震
伯
私
蓝
甘
储
胡
卖
梅
16
耳
疑
润
伴
泽
牧
烧
尾
累
糖
怪
唯
莫
粮
柱
18
竹
灰
岸
缩
井
伦
柔
盟
珠
丹
amp
皆
哪
迎
颜
衡
啊
塑
寒
13
紫
镜
25
氧
误
伍
彻
刀
览
炎
津
耐
秦
尖
潮
描
浓
召
禁
阻
胶
译
腹
泰
乃
盐
潜
鸡
诺
遍
2000
纹
冬
牙
麻
辅
猪
弃
楚
羊
晋
14
鸟
赵
洁
谋
隆
滑
60
2008
籍
臣
朱
泥
墨
辆
墙
浪
姐
赏
纵
2006
拔
倍
纷
摩
壮
苗
偏
塞
贡
仁
宇
卵
瓦
枪
覆
殿
刑
贫
妈
幅
幕
忆
丁
估
废
萨
舍
详
旗
岗
洪
80
贝
2009
迅
凭
勇
雕
奏
旋
杰
煤
阵
乘
溪
奉
畜
挑
昌
硕
庙
惠
薄
逃
爆
哲
浙
珍
炼
栏
暴
币
隔
吨
倾
嘉
址
陶
绕
诊
遭
桃
魂
兽
豆
闲
箱
拓
燃
裁
晶
掉
脂
溶
顿
肤
虑
鬼
2007
灌
徐
龄
陵
恋
侵
坡
寿
勤
磨
妹
瑞
缓
轴
麦
羽
咨
凝
默
驻
敢
债
17
浮
幻
株
浅
敬
敏
陷
凤
坛
虎
乌
铜
御
乳
讯
循
圈
肌
妙
奋
忘
闭
墓
21
汤
忠
2005
跨
怕
振
宾
跑
屏
坦
粗
租
悲
伟
拜
24
妻
赞
兄
宿
碑
貌
勒
罚
夺
偶
截
纤
2011
齿
郑
聘
偿
扶
豪
慧
跳
the
疏
莱
腐
插
恐
郎
辞
挂
娘
肿
徒
伏
磁
杯
丛
旨
琴
19
炮
醒
砖
替
辛
暖
锁
杜
肠
孤
饭
脸
邮
贷
lt
俄
毁
荷
谐
荒
肝
链
2004
2012
尺
尘
援
a
疫
崇
恢
扎
伸
幽
抵
胸
谱
舒
迫
200
畅
泡
岭
喷
70
窗
捷
宏
肯
90
狂
铺
骑
抽
券
俱
徽
胆
碎
邀
褐
斤
涂
赋
署
颗
2003
渠
仿
迪
炉
辉
涵
耗
22
返
邻
斑
董
魏
午
娱
浴
尿
曼
锅
柳
舰
搭
旁
宅
趋
of
凉
赢
伙
爷
廷
戴
壤
奶
页
玄
驾
阔
轨
朗
捕
肾
稿
惯
侯
乙
渡
稍
恨
脏
2002
姆
腔
抱
杆
垂
赴
赶
莲
辽
荐
旦
妖
2013
稀
驱
沈
役
晓
亭
仲
澳
500
炸
绪
28
陕
and
23
恒
堡
纠
仇
懂
焦
搜
s
忍
贤
添
i
艾
赤
犹
尝
锦
稻
撰
填
衰
栽
邪
粘
跃
桌
胃
悬
c
翼
彼
睡
曹
刷
摆
悉
锋
26
摇
抢
乏
廉
鼠
盾
瓷
抑
埃
邦
遂
寸
渔
祥
胎
牵
壳
甜
卓
瓜
袭
遵
巡
逆
玛
韵
2001
桑
酷
赖
桂
郡
肃
仓
寄
塘
瘤
300
碳
搞
燕
蒸
允
忽
斜
穷
郁
囊
奔
昆
盆
愈
递
1000
黎
祭
怒
辈
腺
滚
暂
郭
璃
踪
芳
碍
肺
狱
冒
阁
砂
35
苍
揭
踏
颇
柄
闪
孝
葡
腾
茎
鸣
撤
仰
伐
丘
於
泪
荡
扰
纲
拼
欣
纽
癌
堆
27
菲
b
披
挖
寓
履
捐
悟
乾
嘴
钻
拳
吹
柏
遥
抚
忧
赠
霸
艰
淋
猫
帅
奈
寨
滴
鼻
掘
狗
驶
朴
拆
惜
玻
扣
萄
蔬
宠
2014
缴
赫
凯
滨
乔
腰
葬
孟
吾
枚
圳
忙
扫
杭
凌
1998
梯
丈
隶
1999
剪
盗
擅
疆
弯
携
拒
秒
颁
醇
割
浆
姑
爸
螺
穗
缝
慈
喝
瓶
漏
悠
猎
番
孕
伪
漂
腿
吐
坝
滤
函
匀
偷
浩
矛
僧
辨
俊
棉
铸
29
诞
丧
夹
to
姿
睛
淮
阀
姜
45
尸
猛
1997
芽
账
旱
醉
弄
坊
烤
萧
矣
雾
倡
榜
弗
氨
朵
锡
袋
拨
湘
岳
烦
肩
熙
炭
婆
棋
禅
穴
宙
汗
艳
儒
叙
晨
颈
峡
拖
烂
茂
戒
飘
氛
蒂
撞
瓣
箭
叛
1996
31
鞋
劲
祝
娜
饲
侍
诱
叹
卢
弥
32
鼎
厦
屈
慕
魅
m
厨
嫁
绵
逼
扮
叔
酶
燥
狼
滋
汁
辐
怨
翅
佩
坑
旬
沃
剩
蛇
颖
篮
锐
侠
匹
唤
熊
漠
迟
敦
雌
谨
婴
浸
磷
筒
2015
滩
埋
框
弘
吕
碰
纺
硫
堪
契
蜜
蓄
1995
阐
apos
傲
碱
晰
狭
撑
叉
卧
劫
闹
赐
邓
奴
溉
浦
蹈
辣
遣
耀
耶
翠
t
叠
迈
霍
碧
恰
脊
昭
摸
饱
赔
泄
哭
讼
逝
逻
廊
擦
渗
彰
you
卿
旺
宪
36
顷
妆
陪
葛
仔
淀
翰
悦
穆
煮
辩
弦
in
串
押
蚀
逢
贺
焊
煌
缔
惑
鹿
袁
糊
逸
舟
勃
侦
涯
蔡
辟
涌
枯
痕
疼
莉
柴
1993
眉
1992
罢
催
衔
秉
妃
鸿
傅
400
辰
聪
咸
1994
扇
盈
勘
佐
泊
抛
搬
牢
宴
牲
贾
摘
姻
慎
帕
忌
卒
夕
卜
惟
挺
崖
炒
爵
冻
椒
鳞
祸
潭
腊
蒋
缠
寂
眠
冯
芯
槽
吊
33
150
聊
梗
嫩
凶
铭
爽
筋
韦
脾
铝
肢
栋
勾
萌
渊
掩
狮
撒
漆
骗
禽
38
蕴
坪
洒
冶
兹
椭
喻
泵
哀
翔
1990
棒
芝
x
扑
3000
毅
衍
惨
疯
欺
贼
肖
轰
巢
臂
轩
扁
淘
犬
宰
祠
挡
厌
帐
蜂
狐
垃
昂
圾
秩
芬
瞬
枢
舌
唇
棕
1984
霞
霜
艇
侨
鹤
硅
靖
哦
削
泌
奠
d
吏
夷
咖
彭
窑
胁
肪
120
贞
劝
钙
柜
鸭
75
庞
兔
荆
丙
纱
34
戈
藤
矩
泳
惧
铃
渴
胀
袖
丸
狠
豫
茫
1985
浇
菩
氯
啡
1988
葱
37
梨
霉
脆
氢
巷
丑
娃
锻
愤
贪
蝶
1991
厉
闽
浑
斩
栖
l
茅
昏
龟
碗
棚
滞
慰
600
2016
斋
虹
屯
萝
饼
窄
潘
绣
丢
芦
鳍
42
裕
誓
腻
48
95
锈
吞
蜀
啦
扭
5000
巩
髓
1987
劣
拌
谊
涛
勋
郊
莎
痴
窝
驰
1986
跌
笼
挤
溢
1989
隙
55
鹰
诏
帽
65
芒
爬
凸
牺
熔
吻
竭
瘦
冥
800
搏
屡
昔
萼
愁
捉
翁
怖
汪
烯
疲
缸
溃
85
泼
剖
涨
橡
谜
悔
嫌
盒
苯
凹
绳
畏
罐
虾
柯
邑
馨
兆
帖
陌
禄
垫
壶
逊
骤
祀
晴
蓬
e
苞
煎
菊
堤
甫
拱
氮
罕
舶
伞
姚
弓
嵌
1983
1982
馈
琼
噪
雀
呵
汝
焉
陀
胺
惩
沼
枣
桐
酱
遮
孢
钝
呀
锥
妥
酿
巫
闯
沧
崩
蕊
酬
匠
躲
43
喊
98
琳
46
绎
喉
凰
抬
93
膨
盲
剥
喂
庸
奸
n
钩
冈
募
苑
杏
杉
辱
隋
薪
绒
1980
99
欠
尉
r
攀
抹
巾
1958
渣
苹
猴
悄
屠
41
颂
湛
魄
颠
1949
呆
粤
岂
娇
暑
44
56
52
鹅
筛
膏
樱
p
缆
襄
瑟
恭
泻
匪
兮
恼
吟
仕
蔽
骄
蚕
斥
椅
姬
谦
for
椎
搅
卸
沫
怜
坎
瑰
1978
钦
h
拾
厕
後
逾
薯
衬
钾
崔
稽
蛮
殷
晒
47
菇
臭
弧
擎
粹
纬
1500
焰
玲
竣
咒
歇
糕
诵
茨
妮
酯
麟
卑
浏
咽
罩
舱
酵
晕
顽
赁
咬
枫
冀
贮
艘
亏
薛
瀑
篆
膀
沸
雍
咳
尹
愉
烹
坠
勿
钠
64
坤
甸
墅
闸
藻
韧
鄂
58
51
91
j
瑶
舆
夸
54
蕾
栗
咏
丞
抄
鹏
弊
檐
骂
仆
峻
爪
赚
帆
娶
嘛
钓
澄
猜
1979
裔
抒
铅
卉
彦
f
删
衷
禹
寡
蒲
砌
on
棱
72
拘
堵
雁
仄
荫
53
k
1981
祈
49
奢
赌
寇
3d
隧
摊
雇
卦
婉
敲
挣
皱
虞
亨
懈
挽
珊
饶
滥
锯
闷
it
酮
虐
兑
僵
傻
62
沦
巅
鞭
梳
赣
锌
庐
薇
庵
57
96
慨
肚
妄
g
仗
绑
2017
枕
牡
000
胖
沪
垒
捞
捧
竖
蜡
桩
厢
孵
黏
拯
63
谭
68
诈
灿
釉
1956
裹
钮
俩
o
灶
彝
蟹
涩
醋
110
匙
歧
刹
玫
棘
橙
凑
桶
刃
伽
4000
硝
怡
籽
敞
淳
矮
镶
戚
幢
涡
66
尧
膝
is
哉
肆
畔
溯
97
媚
烘
01
67
窃
焚
澜
愚
棵
乞
86
78
佑
76
iphone
暨
敷
饥
俯
蔓
v
05
88
暮
砍
邵
仑
毗
剿
馀
180
锤
刮
1950
梭
摧
250
掠
躯
诡
匈
侣
胚
疮
59
裙
windows
裸
08
塌
吓
俘
糙
藩
楷
羞
with
鲍
帘
裤
宛
憾
桓
痰
寞
骚
惹
笋
萃
92
栓
61
挫
矢
垦
09
垄
绸
凄
your
镀
熏
钉
1945
led
粪
缅
洽
鞘
蔗
82
迄
沐
凿
勉
昨
喘
700
爹
屑
耻
沥
庶
涅
腕
袍
懒
阜
嗜
朔
1200
蒜
沛
坟
轿
喀
笛
狄
饿
蓉
泣
窟
130
豹
屿
73
崛
迦
诠
贬
腥
83
钥
嗣
瑜
07
倦
萎
拦
冤
讽
潇
谣
趁
1960
妨
84
贩
74
萍
窦
纂
缀
矫
淑
墩
梵
沾
淫
乖
汰
莞
81
旷
浊
挚
撼
69
87
氟
焕
06
庚
掀
诀
kg
盼
71
疹
窖
匆
厥
轧
89
淹
94
160
亥
鸦
棍
谅
歼
汕
挪
蚁
敛
魁
畴
炫
丫
奎
菱
沂
撕
阎
詹
03
蛛
77
靡
瞻
咱
愧
烷
畸
灸
眸
that
觅
芜
1955
廓
斌
躁
麓
摔
1970
烛
睹
孜
缚
堕
昼
睿
琪
琉
贱
6000
渝
跋
1959
茄
1957
舜
1976
诛
1952
捣
芙
04
1961
倚
1938
酰
澈
慌
帜
颤
陇
1962
02
颌
昧
佣
眷
徙
禾
逮
1948
79
莹
碟
梢
朽
粥
喇
1964
榆
驳
楔
1965
啸
肋
dna
踢
1975
1937
u
傍
桔
肴
呕
旭
埠
贿
曝
杖
俭
栩
1953
斧
镁
匾
踩
橘
颅
1963
囚
蛙
1946
膳
坞
琐
荧
瘟
涤
胰
衫
噬
皖
邱
埔
汀
羡
睐
葵
耿
糟
厄
秧
黔
蹄
140
漳
鞍
谏
腋
簇
梧
戎
1977
榴
诣
宦
苔
揽
簧
狸
阙
扯
耍
棠
脓
烫
翘
芭
躺
羁
藉
拐
1966
陡
1954
漓
棺
钧
琅
扔
寝
绚
熬
驿
邹
杠
1972
w
绥
窥
晃
渭
1947
樊
鑫
祁
陋
哺
堰
祛
y
梓
崎
1968
孽
蝴
蔚
抖
苟
肇
溜
绅
妾
1940
跪
沁
q
1973
莽
虏
be
瞄
砸
稚
僚
崭
迭
皂
彬
雏
ip
羲
缕
绞
俞
簿
耸
廖
嘲
can
1969
翌
榄
裴
槐
1939
洼
睁
1951
灼
啤
臀
啥
濒
醛
峨
葫
悍
笨
嘱
1935
稠
360
韶
1941
陛
峭
1974
酚
翩
舅
8000
寅
1936
蕉
阮
垣
戮
me
趾
犀
巍
re
霄
1942
1930
饪
sci
秆
朕
驼
肛
揉
ipad
楠
岚
疡
帧
柑
iso9001
赎
逍
滇
璋
礁
黛
钞
邢
涧
劈
瞳
砚
驴
1944
锣
恳
栅
吵
牟
沌
瞩
咪
毯
炳
淤
盯
芋
粟
350
栈
戊
盏
峪
拂
暇
酥
汛
900
pc
嚣
2500
轼
妒
匿
1934
鸽
蝉
cd
痒
宵
瘫
1927
1943
璧
汲
1971
冢
碌
琢
磅
卤
105
剔
谎
圩
酌
捏
渺
媳
1933
穹
谥
骏
哨
骆
乒
10000
摹
兜
柿
喧
呜
捡
橄
逗
瑚
呐
檀
辜
妊
祯
1931
苷
don
衙
笃
芸
霖
荔
闺
羌
芹
dvd
哼
糯
吼
蕃
嵩
矶
绽
坯
娠
1928
祷
锰
qq
by
瘀
108
岐
1932
茵
筝
斐
肽
歉
1929
嗽
恤
汶
聂
樟
擒
鹃
拙
鲤
絮
鄙
彪
ipod
z
嗓
墟
骼
渤
僻
豁
谕
荟
姨
婷
挠
哇
炙
220
诅
娥
哑
阱
嫉
圭
乓
橱
歪
禧
甩
坷
晏
驯
讳
泗
煞
my
淄
倪
妓
窍
竿
襟
匡
钛
侈
ll
侄
铲
哮
厩
1967
亢
101
辕
瘾
辊
狩
掷
潍
240
伺
嘿
弈
嘎
陨
娅
1800
昊
犁
屁
蜘
170
寥
滕
毙
as
涝
谛
all
郝
痹
溺
汾
脐
馅
蠢
珀
腌
扼
敕
莓
峦
铬
谍
炬
龚
麒
睦
磺
吁
掺
烁
靶
or
圃
饵
褶
娟
滔
挨
android
褒
胱
cpu
晖
脖
垢
抉
冉
茧
from
渲
癫
125
de
悼
嫂
瞒
纶
肘
炖
瀚
皋
姊
颐
1600
俏
颊
gps
讶
札
奕
磊
镖
遐
眺
腑
boss
琦
蚊
窜
渍
嗯
102
1926
touch
夯
1300
笙
蘑
翡
碘
卯
啼
靓
辍
莺
躬
猿
杞
眩
虔
凋
遁
泾
岔
羟
弛
娄
茸
皓
峙
逅
邂
苇
楹
蹲
拢
甄
鳃
104
邯
捆
勺
450
酉
荚
唑
臻
辗
绰
徊
榨
苛
赦
盔
壬
恍
缉
2020
熨
7000
澡
桨
匣
兢
106
驭
x1
镍
孰
绮
馏
蝇
佼
鲸
128
哎
裳
蜕
嚼
嘻
web
庇
绢
倩
钵
ii
恪
帷
莆
柠
藕
砾
115
绊
喙
坂
徘
荀
瞧
蛾
1925
晦
ph
mm
铎
107
紊
锚
酪
稷
聋
闵
熹
冕
诫
珑
曦
篷
320
迥
蘖
胤
103
檬
瑾
钳
遏
辄
嬉
隅
ps
秃
112
帛
聆
芥
诬
1100
挟
宕
2018
鹊
琶
膛
mv
兀
gb
懿
碾
叮
863
蠕
譬
缮
烽
妍
榕
260
1920
邃
焙
倘
210
戌
茹
豚
晾
浒
玺
醚
祐
炽
this
缪
凛
噩
溅
毋
槛
ei
are
嫡
蝠
娴
稣
禀
壑
殆
敖
cm
ios
倭
挛
侃
蚌
咀
盎
殉
岑
浚
谬
狡
1924
癸
280
逛
耽
俺
璨
巳
茜
郸
蒴
琵
we
230
叩
泸
塾
one
稼
reg
侮
锂
曙
3500
up
薰
婿
惶
拭
篱
恬
淌
烙
袜
徵
慷
夭
噶
莘
135
鸳
殡
蚂
1900
憎
喃
佚
龛
潢
烃
at
岱
潺
109
衢
璀
5cm
1400
鹭
揣
痢
know
厮
氓
怠
no
nbsp
痘
硒
镌
乍
咯
惬
not
桦
骇
枉
蜗
睾
淇
耘
娓
弼
鳌
嗅
gdp
狙
箫
朦
椰
胥
丐
陂
唾
鳄
柚
谒
journal
戍
1912
刁
鸾
缭
骸
铣
酋
蝎
掏
耦
怯
娲
拇
汹
胧
疤
118
硼
恕
哗
眶
痫
凳
鲨
擢
歹
樵
瘠
app
茗
翟
黯
蜒
壹
殇
伶
辙
an
瑕
町
孚
痉
铵
搁
漾
戟
镰
鸯
猩
190
蔷
缤
叭
垩
113
曳
usb
奚
毓
ibm
颓
汐
靴
china
傣
尬
濮
赂
媛
懦
扦
111
韬
like
戳
java
雯
114
蜿
116
1923
笺
裘
尴
侗
mba
3g
钨
1919
苓
1922
寰
蛊
扳
搓
涟
睫
淬
5mm
123
ve
121
赈
恺
瞎
蝙
1921
枸
萱
颚
憩
秽
秸
拷
阑
貂
粱
煲
隘
暧
惕
沽
time
菠
1911
趟
磋
偕
涕
邸
so
踞
惫
122
阪
鞠
饺
汞
颍
氰
屹
蛟
跻
哟
have
126
臼
熄
绛
弩
褪
117
渎
亟
匮
撇
internet
霆
攒
舵
扛
彤
nba
蛤
婢
偃
胫
姥
睑
love
iso
pk
诙
what
诲
锭
悚
扒
洱
劾
惰
篡
瓯
徇
铀
骋
flash
1918
out
筷
渚
踵
俨
ceo
榻
糜
捻
釜
哩
萤
270
蛹
隽
垮
鸠
鸥
漕
瑙
礴
憧
殴
潼
悯
砺
拽
钗
ct
酣
镂
mp3
膺
楞
竺
迂
嫣
忱
cad
哄
疣
鹦
1700
枭
憬
疱
will
婪
沮
1914
怅
119
筱
扉
瞰
linux
旌
蔑
铠
瀛
vip
琥
750
127
懵
谴
捍
蟾
漩
1913
拣
汴
university
刨
叱
曜
妞
澎
镑
翎
瞪
sh
倔
芍
璞
瓮
驹
芷
寐
擂
丕
蟠
诃
悸
亘
溴
宸
廿
恃
棣
1917
荼
筠
羚
慑
唉
纣
麼
蹦
锄
145
international
124
淆
甙
132
蚜
椿
禺
绯
冗
168
葩
厝
媲
蒿
痪
650
菁
炊
wifi
俑
new
讥
min
桀
祺
129
吡
迩
do
john
箔
皿
缎
萦
剃
霓
酝
mg
诰
茉
just
get
飙
湍
蜥
箕
蘸
550
4500
柬
韭
溥
but
熠
鹉
咐
剌
138
悖
瞿
槟
娩
闾
pvc
遴
咫
20000
孺
彷
茬
211
蓟
li
if
憨
袅
佬
炯
erp
1910
啶
昙
蚩
136
痔
蕨
瓢
夔
毡
赃
鳖
沅
wang
go
饷
165
臧
掖
褚
羹
ic
勐
tv
谚
畦
眨
贻
攸
涎
弑
咎
铂
瑛
1905
矗
虱
more
133
秤
谟
漱
俸
夙
1915
br
game
雉
螨
恣
斛
175
谙
隍
131
奄
480
yy
1916
壕
髻
155
鄱
嘶
磕
濡
赘
荞
讹
猕
痞
鬓
铮
腱
幡
榭
爻
5m
涓
晤
咕
惭
钼
匕
ok
撮
庾
笠
窘
癖
365
垛
窒
畲
甬
彗
缨
湮
寮
et
衅
谪
156
绫
9000
152
兖
疽
磐
380
菏
沱
骁
嫔
盂
娆
钊
蟒
忏
谤
148
137
server
2200
晟
ng
15000
google
痈
耆
谧
簪
134
ml
疟
扈
脍
琛
咋
胄
142
144
葆
轶
桢
973
攘
was
邕
拧
茯
205
摒
1908
intel
傀
祚
嘟
帼
1906
wto
筵
when
馒
疚
璇
砧
merge
槃
microsoft
犷
exe
腓
煜
弋
疸
濑
310
201
麝
嗟
忻
愣
facebook
斓
吝
咧
矾
愫
151
158
漪
珂
rna
逞
146
206
糠
璐
藓
昕
妩
屌
疵
excel
嘘
he
plc
袂
2400
139
稃
剁
侏
掐
猾
匍
2800
坳
黜
邺
闫
猥
湃
斟
癣
1904
185
匐
粳
sql
330
141
cp
1909
叟
俾
儡
莒
12000
骥
跤
耙
矜
翱
zhang
ms
赡
1907
浣
栾
拈
science
420
螟
aaa
桧
坍
睢
趴
id
伎
2100
婺
霹
痊
膊
眯
豌
202
驮
骈
850
iii
嶂
淞
143
腮
髅
炀
啄
亳
麾
147
筐
叨
徨
跷
ac
楂
郴
绶
hp
羔
xp
ieee
咤
now
there
靳
they
屎
雳
瘘
蹬
2300
惮
acid
涪
阖
煽
蹊
225
栉
153
俟
涸
辫
锢
佟
176
皎
cctv
啮
钰
螂
dc
啪
绷
204
闰
畿
2d
覃
2600
惘
贰
154
碉
卞
酐
枷
葺
芪
207
蕙
192
咚
籁
pro
钴
162
冽
玮
骷
啃
焖
猝
榈
滁
拮
跗
讷
蝗
208
蠡
world
烨
been
hd
gmp
256
脯
歙
泠
刍
掳
pe
his
僳
340
1902
螯
胳
髦
粽
戾
祜
178
186
岷
懋
馥
昵
踊
湄
郢
斡
迢
ce
photoshop
嗪
about
裨
1903
羧
膈
翊
lcd
鲫
163
螃
沓
疝
笈
ktv
榔
157
诘
autocad
195
颉
蛀
鸢
焯
囧
make
梆
npc
潞
戛
see
system
149
佗
艮
chinese
let
霾
鬟
215
net
玖
1898
腭
喔
172
罔
佥
粑
visual
舷
泯
m2
198
has
203
sd
泓
炜
谗
烬
跆
rpg
傩
飓
浔
钤
惚
胭
踝
镯
ep
221
臆
196
蜚
揪
觞
皈
dj
183
api
迸
匝
筏
167
醴
黍
洮
滦
侬
甾
290
way
3200
188
diy
2cm
com
澧
阈
袱
迤
衮
166
濂
娑
砥
砷
铨
缜
箴
30000
逵
猖
159
蛰
箍
侥
2mm
搂
纨
裱
枋
嫦
敝
挝
贲
潦
235
撩
惺
铰
f1
忒
咆
哆
莅
164
炕
抨
涿
龈
猷
got
b1
182
2m
212
遒
缥
vs
捂
俐
la
瘙
搐
牍
isbn
馍
our
痿
袤
峥
184
栎
罹
燎
喵
209
1901
璜
飒
蔼
珞
澹
奘
岖
芡
簸
杵
甥
骊
216
悴
173
惆
5mg
殃
1895
呃
161
5g
祗
3600
髋
169
liu
who
幔
down
榛
犊
霁
芮
520
牒
佰
her
狈
薨
co
吩
鳝
嵘
濠
呤
纫
3mm
檄
214
浜
370
189
缙
缢
煦
蓦
揖
拴
缈
218
褥
铿
312
燮
life
锵
174
荥
187
忿
4s
僖
婶
171
chen
芾
镐
痣
research
眈
460
祇
邈
翳
碣
遨
鳗
诂
never
岫
焘
3cm
co2
茱
tcp
only
255
gsm
say
洵
晁
right
噢
she
over
偈
旖
david
181
232
蚓
柘
珐
遽
岌
桅
213
唔
222
鄞
雹
michael
驸
苻
恻
鬃
玑
磬
崂
304
祉
荤
淼
560
264
肱
呗
pp
b2
骡
囱
10cm
佞
back
1890
226
耒
伫
嚷
粼
aa
歆
佃
旎
惋
殁
杳
their
阡
red
畈
蔺
os
177
map
巽
cbd
昱
啰
吠
179
199
嗔
涮
238
奂
1896
撷
301
袒
720
爰
捶
赭
蜓
姗
蔻
垠
193
gis
噻
ab
峒
皙
want
245
憔
帚
office
xx
杷
蟆
iso14001
觐
钒
岙
2700
1899
栀
幄
啧
癜
擀
轲
铆
them
讴
樽
霏
mtv
肮
枳
骞
诧
瘢
虬
拗
play
219
蕲
316
茁
唆
technology
word
沭
毂
蛎
芊
銮
瞥
呱
223
羿
吒
傥
髯
濯
蜻
皴
802
430
邳
燧
1860
獭
垭
祟
217
虢
how
枇
abs
鹫
194
颞
1894
333
皑
脲
197
舔
魇
霭
org
坨
郧
baby
椽
舫
228
oh
305
荠
琊
溟
1897
煨
265
谯
粲
罂
gonna
屉
佯
郦
亵
诽
芩
嵇
蚤
哒
315
啬
ain
嚎
玥
twitter
191
隼
唢
铛
cause
壅
藜
won
吱
rom
楣
璟
锆
憋
罡
al
咙
1850
腈
oslash
job
233
廪
堑
into
诩
b2c
溧
鹑
讫
哌
铢
蜴
1ml
稹
噜
镉
224
愕
桁
晔
琰
陲
疙
667
崮
need
540
8mm
html
颛
through
asp
桡
钜
580
take
谑
仞
咦
珪
揍
鱿
阉
3800
瘩
410
槌
滓
茴
tft
泮
涣
atm
pci
柞
渥
飨
孪
沔
谲
桉
vcd
慵
318
oem
other
俚
paul
跖
纭
恙
which
fi
佘
236
荃
咄
鞅
叁
james
恽
m3
253
炔
萘
钺
6500
1880
ccd
楫
塬
钡
琮
苄
950
325
275
1g
day
o2o
960
music
骰
偎
粕
amd
咔
鹄
瓒
阆
捅
嬴
adobe
箨
name
390
680
640
氦
倜
b2b
觊
xml
婕
229
jar
锑
撬
chem
掰
嗷
5500
1cm
饯
蓓
234
good
鼬
spa
佤
5a
ss
蚯
挞
臾
where
atp
227
嶙
幂
饬
闱
live
high
煅
嘧
1mm
蹭
sun
abc
瞭
顼
箐
here
徉
231
骜
302
嗨
邛
庑
柩
饕
俎
4mm
15g
嘌
50000
颏
cssci
椁
崧
锉
籼
1870
狞
弁
6mm
羯
踹
糅
248
1840
砼
263
嫖
tmp
252
mac
285
豉
啉
榷
嘈
en
俪
痂
308
inf
630
儋
4a
芎
ai
man
繇
1889
bt
239
meta
蹇
242
530
诋
bbc
煸
峋
淙
324
management
1885
泱
徜
crm
4cm
free
汩
纥
246
蝼
囿
uv
暹
谆
蹂
鞣
3c
mr
螳
cs
馗
幺
鞑
贽
268
istp
243
漯
237
牦
淖
engineering
dr
囤
than
gprs
sp
440
晗
1888
258
忡
懊
呋
埂
pcb
307
first
321
robert
鲈
sup2
阕
3m
幌
cg
303
鳅
勰
find
8cm
萸
剽
蚝
wi
绔
pdf
1250
262
php
辇
10mg
use
ie
麋
1884
陟
宥
oracle
锺
喽
620
1892
1893
淅
熵
荨
247
忤
american
266
seo
轭
嗦
荪
also
骠
鹘
p2p
4g
聿
绾
诶
985
怆
244
喋
恸
湟
睨
翦
fe
蜈
1875
褂
娼
1886
羸
觎
470
瘁
306
蚣
呻
241
1882
昶
谶
猬
荻
school
286
酗
unit
肄
躏
膑
288
2g
嗡
273
iv
cam
510
庠
崽
254
搪
pcr
胯
309
铉
峤
郯
藐
舂
come
蓼
some
薏
窿
羣
氽
徕
冼
rs
阂
欤
殒
窈
脘
780
篝
yang
1861
3300
iso9000
麸
砭
max
砰
骶
豺
lg
窠
獒
think
腴
苕
any
its
缇
骅
劭
college
卅
ups
揆
垅
na
6cm
琏
镗
苜
胛
1881
black
珏
吮
抠
搔
276
rock
251
槎
4200
323
掣
pet
1887
ap
琨
餮
375
舛
give
si
痤
us
311
278
埭
english
peter
1891
820
胪
喹
妲
婀
帙
10g
oa
7500
箩
灏
霎
logo
袄
dsp
bl
镭
蓿
power
long
墉
too
嵊
1862
girl
堇
king
蟋
610
叽
249
钎
30cm
fm
録
group
1883
郓
瘴
vol
丶
呦
邬
頫
272
馁
hiv
鄢
257
1876
ordm
蛭
322
愍
锲
槿
珈
best
4800
mri
1080
fda
10mm
261
nt
660
super
1m
center
ui
335
蜃
298
拎
鎏
裟
沏
np
螭
7mm
觑
墒
捺
轸
micro
榫
based
319
怔
ram
618
昀
even
泷
1864
ca
凫
唠
狰
鲛
氐
呛
绀
碛
茏
盅
蟀
洙
off
訇
蠹
auml
dos
20cm
267
棂
18000
蚴
篾
two
靛
暄
show
1868
泞
cdma
mark
vc
洄
赓
麽
25000
篓
孑
860
烩
980
design
颢
钣
var
髂
蹴
wanna
筮
蝌
醮
home
菖
fun
cmos
獗
friends
business
岘
570
鼐
1865
姣
national
1874
蟑
袈
葶
掬
most
vga
emba
躇
30g
鹌
city
踌
282
钹
蚪
颧
001
13000
鹳
274
km
345
1050
stop
328
then
鲲
驷
潴
295
386
焱
稔
悌
mpeg
st
suv
vista
a1
vi
283
help
basic
唏
11000
苒
蹙
house
heart
ouml
281
氩
bug
mobile
宓
service
dll
綦
苎
application
疃
methyl
攫
rfid
100g
287
掾
1871
徭
490
舀
逶
嗤
760
0m
ge
1872
people
hr
蜷
茔
512
疳
迳
罄
瓠
100mg
讪
psp
av
傈
ppp
杲
灞
氲
鬲
獠
柒
骧
1848
away
william
326
搀
珩
绦
1879
嚏
710
镛
喱
倏
馋
茭
擘
斫
284
1mg
怂
hdmi
唧
犍
谩
赊
317
271
wu
鬻
禛
15cm
259
840
feel
485
圻
10m
蹶
5kg
1877
1873
缄
瘿
黠
甑
矸
嘀
il
蹼
jack
lee
269
叼
di
313
旻
auc
502
1350
鹜
289
fc
稗
336
999
association
many
293
雒
george
td
赉
style
馔
颦
ul
ld50
1867
颔
掇
1863
each
赅
桎
inc
痧
dv
谄
孛
笆
鲶
铳
3100
mc
tell
4m
blue
327
299
bios
龋
385
盱
笏
2030
窕
苴
314
big
1866
296
萋
355
辘
琬
cu
梏
much
蚧
3400
1280
镳
24h
own
670
studio
瞅
keep
6g
ppt
conference
around
information
睬
1878
class
偌
鲵
惦
1830
蜍
mp4
why
靼
1851
332
阗
菟
黝
1650
control
挈
嵴
剡
358
楸
dha
氤
m1
vr
呎
珲
5ml
馄
滂
338
蹉
蓑
锷
297
279
啜
1644
sm
婵
well
鬣
7cm
钿
bbs
晌
蛆
隗
酞
枞
352
work
always
9g
戬
獾
镕
star
easy
饨
娣
缰
邾
334
8m
ni
鹗
277
425
end
had
嗒
苋
薮
棹
type
richard
880
6m
拄
air
埕
勖
鹞
殚
鲢
pop
a4
1750
ftp
16000
啖
ad
沣
501
靥
葭
诿
htc
鸪
007
饴
t1
疖
抟
睽
770
access
tcl
稞
吋
谀
澍
杈
妤
sata
part
峄
systems
漉
40000
ever
気
368
咲
qs
ta
璘
ltd
mol
media
萜
僭
朐
742
1855
cc
圜
癞
藿
555
珉
isp
set
1450
陉
him
僮
292
膻
1853
薹
810
汊
still
锗
昉
pvp
猗
http
1859
3700
strong
3a
锶
real
跛
art
1869
331
1368
嘹
337
瓤
402
衄
1856
1820
1150
matlab
豕
吆
腆
thomas
a2
294
le
366
using
356
bb
喆
smith
different
莴
401
谌
ci
珙
疥
kw
鲑
405
玷
蛔
砀
361
zh
nasa
materials
329
nature
1h
谔
睥
ch
20mg
2mg
du
mail
data
every
蹑
诒
逋
372
while
姝
刈
婧
going
喳
镞
铌
291
712
辎
鹧
檩
740
扪
10ml
霰
ar
裆
ol
嬷
0mm
ufo
charles
20mm
tvb
apple
刎
iec
project
sbs
嵋
342
690
悱
920
嘤
jean
篁
荸
瞑
殓
搽
50mg
343
橇
include
eva
雎
弭
獐
haccp
恿
video
cf
vpn
society
眦
730
铐
song
尕
捎
诟
institute
痨
cn
369
笞
756
version
des
sns
趺
590
award
唬
苣
css
lte
xu
fbi
啾
瘪
垸
357
橹
after
濛
曷
level
樾
very
汨
仟
姒
1858
again
怦
荏
tom
诤
苡
吭
830
dm
before
406
崆
氡
young
脩
lan
胝
钏
3ds
cr
arm
pos
night
屐
395
忐
彧
拚
鏖
344
100ml
525
孳
1024
yu
忑
384
邝
穰
403
摈
庖
351
鸵
398
hello
矽
354
鲟
said
381
768
発
762
sap
1854
msn
菅
book
353
true
339
javascript
348
2900
圪
蹋
衾
簋
璎
367
噎
911
嬗
346
肼
362
359
跎
滟
little
4300
701
戦
嵬
look
仝
phys
club
惇
纾
times
14000
炁
382
xyz
number
ak
mind
huang
闳
骐
秣
眙
谘
碓
iso9002
疔
412
恂
am
top
master
鳕
green
鸱
int
爨
镊
404
were
4600
em
better
钯
圮
楽
堀
1852
408
sat
1857
378
422
膘
705
噗
347
start
486
锹
505
杼
酊
same
376
white
挎
箸
郗
垌
sa
溏
martin
蔫
偻
364
妫
飚
625
601
辔
濬
666
ds
瑄
621
觚
5600
nhk
415
express
铍
bit
跚
9mm
翕
煊
these
50mm
gpu
b6
hip
耄
铋
篦
zhou
阇
骛
nvidia
莪
吲
youtube
唁
870
箧
503
tm
8500
really
珅
潋
迨
哽
without
砦
model
缗
hey
謇
呸
mrna
垓
糍
park
wap
璠
妣
狎
攥
396
闇
york
蛉
瑁
joe
腼
蹒
great
review
200mg
chris
www
嶷
online
莠
沤
哚
475
遑
v1
such
跺
膦
蹿
unix
hard
40cm
50cm
nothing
郫
zhao
玳
ma
boy
埚
url
432
network
aaaa
衿
371
try
醪
full
挹
raid
bg
绡
汜
digital
mb
c1
坩
ccc
旃
5200
607
itunes
powerpoint
鸨
between
407
翈
1842
1844
435
838
抡
chemistry
team
party
die
晞
place
care
盥
藁
蓖
383
cv
臊
made
state
465
羰
388
1620
sas
楝
噱
ji
饽
苌
soho
褓
佶
mp
581
years
1260
1680
hop
稜
瞠
仡
25mm
605
423
341
363
374
627
text
development
518
伉
襁
ug
change
713
涞
1849
蜇
抿
瑗
pda
418
un
line
958
孱
懑
416
von
373
淦
赝
core
dns
747
427
387
would
ipo
醌
551
缫
蠲
alt
嚓
鲷
湫
捋
1845
咩
裏
avi
犒
2050
墀
yeah
god
445
lesson
硐
蔸
399
758
pu
computer
456
钽
1847
麂
brown
store
蒡
鼹
绻
1821
錾
仃
515
篙
蕤
589
applied
737
930
c3
1841
铤
billboard
apec
槁
牖
螈
mary
俦
family
笄
color
啻
対
jsp
郤
next
iq
645
506
hbv
闼
a3
349
value
413
igg
411
426
醺
赍
檗
usa
裾
head
噫
掸
mike
箓
usb2
things
5800
5v
o2
妪
乂
蝈
砻
胍
220v
392
cba
397
535
idc
analysis
25mg
蜱
ti
2h
聃
雠
碚
椤
缯
昴
890
缱
祎
der
缬
ex
508
铙
cnc
pentium
孀
533
advanced
mpa
yl
笳
蘇
愆
685
榉
old
氙
call
alex
燹
撂
菽
583
箬
蛄
瘸
嬛
495
橐
could
60000
something
纡
刽
辂
hong
377
law
蒯
邨
1846
1550
r2
1837
赀
player
414
跸
phone
邙
hold
rgb
421
henry
2025
黟
409
磴
1815
mode
1843
闿
504
letters
1780
428
垟
389
t2
london
528
jpeg
嵯
钚
steve
跄
30min
527
潸
h2
35000
崴
eric
379
run
three
rf
left
455
恁
open
楮
556
bc
476
腧
458
plus
1812
1839
胨
b12
4d
芫
america
est
dream
碴
隰
杓
md
ya
global
436
15mm
2ml
貉
欹
sup3
侑
ea
鳜
910
ben
铄
椴
昇
醍
1020
798
midi
肓
features
lc
brian
akb48
缂
1835
test
铡
light
978
s1
1799
key
sim
1795
simple
energy
蹠
徂
west
725
body
豢
424
face
蒽
lin
805
1120
479
菡
bill
433
衲
阚
believe
brt
pa
last
芗
hu
sam
wei
adsl
602
mk
痍
玠
1832
523
晷
604
jj
468
淝
1560
鄯
ck
473
糗
耨
榧
394
940
eq
498
used
sc
胴
c2
蕈
screen
镬
635
鼾
431
education
wwe
摭
鸮
cl
5400
fpga
恚
419
実
asia
534
552
砝
100mm
pid
741
珣
under
603
寤
埙
mbc
tc
xxx
didn
478
mn
p1
锏
simon
ansi
438
hi
615
喟
蘅
骺
cell
捭
study
586
393
莜
should
xi
缶
f2
games
0g
1760
mini
johnson
jones
yes
锟
1825
叵
cm3
炷
1580
stay
675
another
6800
鲧
1736
ps2
胼
517
査
岬
2019
1640
rose
鹂
牯
珥
entertainment
448
und
496
莼
software
970
邠
5300
h1n1
488
da
眇
卟
変
20m
may
417
lady
galaxy
4100
惴
1789
846
801
渑
907
put
蚱
gone
606
t3
company
632
454
516
998
548
391
4700
瞌
ide
瘰
7200
佝
together
street
旸
626
衽
郅
奁
731
30mg
mvp
1370
60cm
12cm
魑
1828
628
everything
612
san
937
缛
2gb
lu
angel
20ml
576
颙
sony
790
press
镫
hall
簌
beautiful
豇
711
453
pm
姹
thing
442
邋
alpha
leave
暝
441
30mm
chapter
507
100000
526
directx
511
9cm
words
釐
619
洹
444
frank
咿
eyes
483
俳
522
蜊
醐
541
water
499
聩
non
bob
坻
532
757
545
毽
oo
喾
alone
scott
744
辋
river
zhu
倌
媪
蛳
滹
哙
nc
20g
阊
gs
queen
趸
1130
1645
祢
4mg
1814
girls
544
e1
籀
1210
1573
徼
ipv6
訾
髁
1a
jackson
砜
1836
les
4gb
撸
瓘
1790
缁
镓
sars
eps
519
sod
bp
1810
year
縻
sound
617
菀
1125
598
酢
桠
466
emc
撵
怏
429
1838
ready
渌
546
taylor
452
news
1180
568
2a
af
538
list
hot
1380
etc
1796
摞
mo
槲
levels
ht
浠
诜
魉
韫
daniel
亓
盤
pv
瑭
魍
1831
emi
襞
social
dreamweaver
爿
kbs
565
613
990
浃
樯
jb
讵
揩
physics
耋
帏
lng
崃
bs
457
enough
shy
521
596
ec
451
鸩
遢
turn
臃
available
4400
585
粿
1010
禳
hand
439
536
桫
link
side
earth
mx
髹
7m
482
诳
472
1140
707
622
wcdma
513
must
492
462
踉
40mg
948
cmax
郃
1320
v2
542
email
493
嗖
sup
讧
cnn
446
碁
17000
湎
30m
529
653
531
575
阏
sr
united
pm2
mt
媾
443
様
aac
806
哔
舸
vb
611
曩
821
gre
gl
cisco
忝
峁
掂
464
葳
487
437
including
715
鄄
558
both
谵
463
jim
608
m4
5100
彊
锴
war
郜
money
481
葖
1824
tnt
蓇
瓴
鳟
橼
5s
louis
434
鲇
邗
el
犄
秭
3900
records
view
chemical
1001
1mol
dance
668
dl
槭
缵
que
624
rt
1823
1805
005
1826
巯
sgs
user
龊
qc
狍
island
language
space
擞
saint
2n
pt
share
瞽
hotel
christian
557
栲
撅
2b
1801
447
1822
瑀
smt
hk
1834
戢
825
50ml
朓
逖
general
椹
nm
洺
cae
484
艏
wma
zn
苁
single
599
c4
滘
777
铧
侪
ocirc
1kg
684
豳
skf
12mm
489
hla
竦
貔
ld
being
562
圄
van
gm
688
655
special
呷
edition
1s
jiang
131108
514
1792
ncaa
1833
旄
遛
jr
program
656
467
ing
901
755
509
芈
kong
rp
砣
桷
audio
icp
happy
龌
done
疬
japan
ts
mit
p2
524
looking
miss
缟
582
洌
35mm
494
grand
跏
those
joseph
ctrl
547
1040
686
蝮
lp
cod
菰
sio2
txt
1770
1060
帑
767
north
fcc
怙
ester
718
story
edi
634
1360
豸
1660
lh
雩
1230
magic
誊
549
臬
4k
op
1662
651
镣
箇
616
title
sciences
25cm
踱
s2
t4
钍
648
100m
543
588
苫
554
蝽
r1
3mg
amino
1776
浯
609
772
ca2
vlan
469
500mg
単
road
亶
636
metal
device
40mm
囹
穑
1730
佻
1818
绌
12g
537
诔
pve
autodesk
477
v8
ray
gp
span
gc
size
716
鹬
ssl
crt
1670
925
髌
pn
1127
702
658
services
support
1802
蒌
coming
experience
nbc
鳏
631
638
ace
0cm
ems
9001
殄
yen
soc
ethyl
怛
tf
筌
刳
studies
theory
1030
578
radio
翮
卍
畹
471
704
because
1610
箜
save
燔
赳
553
1809
篌
窨
翥
785
炅
钕
lett
803
1827
academy
ed
629
sf
pr
hill
explorer
future
food
莳
662
567
dcs
忖
戡
1086
1190
1829
bad
es
15m
order
spring
沢
south
497
025
move
狒
1630
圉
abb
449
learn
l0
d2
5d
wav
琯
邰
cis
quality
odm
926
acta
root
smart
1661
苾
cm2
photos
l2
via
sk
犸
623
邡
feeling
572
郏
襦
python
bmw
888
guo
epa
williams
沆
813
bot
read
function
wilson
1723
enterprise
玟
50hz
s26
fire
engineer
tony
1819
濉
rh
洎
莨
氘
pb
咛
1720
佺
1460
815
cbs
腩
beta
鳔
1735
yan
1gb
x2
剜
秕
牝
芨
din
関
del
sms
649
pal
1369
far
maya
654
拊
812
595
竑
50m
圹
close
eos
颡
1420
6300
1816
wrong
break
573
765
file
friend
002
摺
683
nx
沩
蜉
please
1170
ro
6400
筚
nick
acm
愔
ati
point
肟
766
俶
fast
ata
d1
678
geforce
1710
yahoo
堃
绉
mysql
1793
奭
gap
iso14000
uk
astm
h2o
n2
film
method
1804
罅
so2
嗳
665
adam
uc
蜢
1806
1775
photo
疠
474
image
200mm
sure
561
帔
髡
643
黥
1813
proceedings
褛
柰
beyond
royal
else
eda
808
ddr
gif
鏊
l1
痼
571
waiting
堞
code
652
rss
learning
嗝
461
beijing
娉
566
577
708
1520
689
kevin
human
661
539
875
1811
ssci
6600
戕
587
735
3s
铱
耜
觥
867
镒
584
呓
1522
904
case
1101
491
1080p
history
蒹
栱
im
564
f4
卮
琚
salt
jason
rohs
12v
hydroxy
逦
modem
font
酩
蓍
cry
65536
health
虺
1798
tonight
small
谠
1570
1220
jane
against
597
751
459
bd
鼋
焗
udp
process
1070
1807
children
8g
eb
62mm
22000
add
1440
褴
rm
25g
ccedil
706
714
5l
砒
赧
蛏
709
蚬
1530
瘕
5h
559
jay
iga
020
fall
scsi
顗
isdn
death
563
today
愠
dvi
勣
wait
1642
飕
徳
滢
琇
鳙
db
瞟
尻
force
400mg
澶
荽
舐
arts
ha
east
lost
effects
1628
album
harry
633
dark
public
2250
soul
826
659
exo
侂
733
se
黼
icu
4h
market
潟
7800
绂
瘗
ngc
1794
crazy
蓥
竽
濞
igm
scdma
6200
cb
835
699
骖
偁
bmp
809
1270
oled
応
1160
1621
锜
g3
ova
cheng
614
匏
thinkpad
赑
fps
create
kim
讦
1480
诨
1540
rev
1v1
罘
fans
巖
1740
ag
嫘
1649
ps3
908
颀
g1
703
岿
v3
虻
936
fl
c2c
罴
environmental
paris
594
hear
囗
jump
communications
溆
talk
噤
824
骝
003
咂
695
728
e2
nec
iptv
1797
kelly
500ml
锛
721
rc
1808
ldl
1240
槊
radeon
676
啕
tang
plant
50g
驽
professional
凇
698
s36
lord
search
alan
籴
pd
1403
硖
1791
816
1636
3h
gsp
811
sky
1632
铯
christmas
怿
笥
matter
574
噙
倨
effect
647
779
1803
657
sorry
awards
igbt
pwm
坭
醅
sos
976
592
滏
10min
682
cs3
悻
did
mater
579
聒
1724
feng
low
mhz
836
722
枥
726
昺
bank
memory
rap
975
663
ips
酆
2kg
787
簟
睇
轫
溱
骢
榘
642
珺
跹
677
series
nlp
raquo
蚶
stone
1672
1817
1646
827
驺
ko
security
perfect
alexander
746
tt
check
804
饧
15mg
sir
moon
doesn
591
inside
tim
672
641
噼
儆
1w
氚
646
哧
1783
旒
鸬
1648
夥
ev
1688
score
standard
玦
723
貅
揄
戗
fx
938
璩
fu
1654
剐
010
cpi
垴
蘼
hz
1521
1067
727
ah
lv
916
裒
639
han
躅
1715
唳
form
second
嗑
荦
674
霈
jin
缦
啭
pi
1788
rx
隈
gao
sdk
zheng
悫
745
href
593
ngo
multi
d3
彀
637
1276
悭
found
jis
5700
焓
1234
80cm
磔
aim
1778
蓊
act
569
xiao
郾
717
786
return
5min
1582
etf
1590
action
1625
sarah
yourself
枧
鹚
10kg
80000
検
775
818
stephen
gui
屃
644
9500
v6
馑
wlan
hs
2048
area
1616
andrew
8226
6mg
1567
1763
1470
嗲
pps
铟
rca
pierre
687
null
manager
738
sdh
828
薤
60g
300mg
jun
1685
favorite
making
playing
summer
754
692
涔
樗
664
忾
収
绺
945
h2s
bis
self
300mm
烊
opengl
912
acute
螫
黩
996
magazine
edward
su
elisa
hdl
cyp3a4
鞫
foundation
alice
ddr3
915
923
tbs
andy
field
date
transactions
limited
during
1126
鲠
1057
fan
嘭
缣
845
681
rw
mean
1566
become
economic
852
johnny
蒺
unique
黒
tu
boys
1330
885
getting
cj
1072
nh
ne
band
cool
724
771
骘
氖
content
842
镝
俅
谮
te
9600
drive
phenyl
1275
屦
cao
menu
823
摁
氪
蘧
active
sb
appl
988
1622
伝
1725
zero
1008
3kg
腠
叡
hit
鲂
mi
0kg
748
lite
enjoy
local
789
続
1506
seen
s3
1765
european
讣
gold
1279
736
965
pl
button
耷
1430
986
763
toefl
燊
鸷
jimmy
dota
955
861
猊
732
xbox
days
dan
673
833
囡
崤
4c
economics
23000
agent
html5
points
ryan
shi
砬
湜
reading
918
mine
adc
917
1592
1781
翚
峯
909
once
exchange
choose
current
symbian
ts16949
dave
machine
鲎
qos
蕖
1785
9m
cia
until
cs4
759
f3
903
24000
968
8mg
lewis
鹈
凼
snh48
866
泫
荑
黻
牂
1722
鄣
篑
ho
1110
1784
髭
陬
寔
dt
shanghai
疴
邽
987
45000
1042
喏
彖
sl
saas
814
28000
a5
彘
赟
819
foxpro
shit
822
盹
诮
鸫
per
does
150mm
products
camp
select
capital
茕
corporation
26000
铖
954
dd
闩
string
page
ba
671
読
782
鄜
漈
盍
dlp
729
甭
愎
outlook
wii
ue
1787
festival
communication
channel
gary
1755
1774
8600
copy
150mg
魃
dragon
1056
c5
炆
track
hdpe
liang
鍊
1800mhz
1619
蛐
995
21000
薜
win
1394
1786
rain
楯
table
鲀
逡
itu
applications
mmorpg
嘞
s7
696
侔
1069
觇
lbs
0mg
car
wave
糸
踮
狷
1552
1627
latest
step
886
761
菘
783
寳
esp
扃
865
jazz
k1
fine
child
kind
anna
60mg
997
maria
nk
792
raw
late
soa
905
cai
ttl
delphi
prince
1340
禊
synthesis
喑
rmb
miller
patrick
933
running
50kg
1398
ast
752
location
dead
塍
chateau
allows
forget
tg
921
栝
5w
kiss
1690
691
arthur
瓿
index
csa
rmvb
msc
廨
cas
known
h1
tj
j2ee
asian
841
1227
g20
cross
cos
ntilde
719
貘
dnf
california
france
modern
pacific
769
1066
turbo
753
795
669
1764
868
馕
僰
union
1772
2150
1063
哏
double
fight
858
math
bo
瑷
men
sea
6700
sem
697
疎
882
note
qi
uml
902
1637
tp
1290
1085
776
蝣
怵
阃
dps
1687
弢
镲
hcl
al2o3
js
auto
螅
1683
v5
culture
935
吖
edge
碲
voice
1007
bridge
855
008
夼
茌
battle
嗬
靺
dp
ae
1090
895
1012
1162
bi
778
髀
1575
pcm
15min
1598
铊
secret
739
200m
6h
matt
谡
card
mic
癔
ecu
16mm
984
镠
5km
dhcp
1753
巻
秾
living
gn
1643
framework
菪
679
赜
1782
four
铈
1777
british
shell
santa
yuan
20ma
fly
927
qu
nds
qaq
bar
髙
arp
1667
1773
693
main
鲳
1510
1002
2022
cdna
box
珰
100km
004
畋
bring
泅
959
hpv
makes
cmv
鲅
tmd
1762
854
泚
ghost
short
mcu
1768
cat
963
1757
1206
1207
puzzle
793
central
859
飏
walter
60hz
anderson
1727
thought
屍
仨
864
molecular
856
dong
financial
1728
surface
g2
mf
葚
叻
solidworks
res
speed
1195
咻
ascii
1404
784
jeff
衩
1371
land
biology
1655
郄
otc
sio
1310
1605
蹩
mems
1618
m16
complete
industrial
acs
1603
kids
tour
u2
allen
1756
743
嬖
踽
davis
柽
鞨
65279
7600
30ml
957
0l
734
p450
956
ir
麴
500mm
casio
1038
roger
library
015
1652
薙
within
hands
874
ntsc
钇
whole
jq
氵
垆
post
sweet
wall
898
cs5
feo
9800
cms
1390
since
medical
犟
1492
罍
stand
justin
lake
i5
1729
bell
ruby
important
bout
images
lab
962
1759
rj
cache
nb
production
経
807
1771
doing
粜
tnf
ws
guide
bim
events
1626
1016
焜
performance
ra
zl
牀
1568
1647
埝
洧
1615
shift
788
shen
1588
60mm
覧
tuv
1673
electronic
mos
蓣
8kg
862
echo
1572
section
981
甯
sg
1664
understand
hsk
delta
x86
eap
block
1578
er
xl
蒐
馐
nox
畑
ib
trying
ann
1635
apache
naoh
12345
缑
礽
1624
694
瞋
1601
浍
983
773
1000m
someone
15kg
25m
847
袢
桕
1037
jerry
843
picture
919
e3
printf
3gs
marie
853
rj45
侩
913
896
lose
unicode
100cm
1711
charlie
詈
戸
1689
room
烝
beat
堌
伋
hplc
9300
110kv
nfc
倬
764
iis
圯
solo
碇
ef
round
chang
1366
781
1585
982
socket
df
892
1536
831
ren
6kg
4900
纰
object
forever
832
951
qr
1023
8800
4kg
磾
泔
1131
纮
蓁
971
building
1021
铗
939
弇
挲
crystal
艉
smtp
鱬
cims
fang
1265
trans
pan
1745
1604
泺
橛
817
796
袴
cosplay
1154
1189
749
794
1068
881
hc
hope
1410
couldn
1638
992
along
age
250mg
clear
aps
1631
1011
provides
1123
1701
36000
csf
韪
n1
works
籓
967
ptc
贶
1111
1651
棰
1726
sar
1666
qvga
hf
coreldraw
possible
趵
1629
943
marc
luo
樨
848
county
944
tb
dts
junior
vba
lot
傕
玕
毎
direct
839
繸
2350
774
劵
fsh
wmv
镧
秫
1094
osi
1602
邶
猞
dior
1766
1623
廛
栌
钲
镦
1607
psa
spss
xy
1769
cells
1465
1577
gon
send
vision
thinking
imf
嘏
carl
蝰
32000
bay
928
is09001
镏
20kg
淠
imax
novel
qt
1684
荇
逄
au
author
mod
80mm
1748
849
1612
yet
嘅
929
6l
karl
6100
students
gmat
myself
kate
jpg
979
1752
829
2450
914
876
祕
瑠
48h
mpv
1734
mis
1565
walk
941
1075
1235
natural
k2
977
炝
杪
4050
1669
p3
1004
fn
埴
1555
vmware
chloride
942
steven
1078
獬
966
1135
country
947
柢
捱
跣
887
涑
75mm
1278
1583
western
watch
撃
伢
堠
1045
12m
museum
1215
document
marketing
952
卽
猁
usb3
906
厣
physical
辏
1668
旆
agp
茆
1488
pg
乜
deep
1082
961
踯
1526
#
[
yam
lofter
##s
##0
##a
##2
##1
##3
##e
##8
##5
##6
##4
##9
##7
##t
##o
##d
##i
##n
##m
##c
##l
##y
##r
##g
##p
##f
pixnet
cookies
tripadvisor
##er
##k
##h
##b
##x
##u
##w
##ing
ctrip
##on
##v
llc
##an
##z
blogthis
##le
##in
##mm
##00
ig
##ng
##us
##te
##ed
ncc
blog
##10
##al
##ic
##ia
##q
##ce
##en
##is
##ra
##es
##j
##cm
tw
##ne
##re
##tion
pony
##2017
##ch
##or
##na
cafe
pinterest
pixstyleme3c
##ta
##2016
##ll
##20
##ie
##ma
##17
##ion
##th
##st
##se
##et
##ck
##ly
web885
##ge
xd
##ry
##11
0fork
##12
##ter
##ar
##la
##os
##30
##el
##50
##ml
tue
posted
##at
##man
##15
ago
##it
##me
##de
##nt
##mb
##16
##ve
##da
##ps
##to
https
momo
##son
##ke
##80
ebd
apk
##88
##um
wiki
brake
mon
po
june
##ss
fb
##as
leonardo
safari
##60
wed
win7
kiehl
##co
##go
vfm
kanye
##90
##2015
##id
##ey
##sa
##ro
##am
##no
thu
fri
##sh
##ki
comments
##pe
##ine
uber
##mi
##ton
wordpress
##ment
win10
##ld
##li
gmail
##rs
##ri
##rd
##21
##io
##99
paypal
policy
##40
##ty
##18
##01
##ba
taiwan
##ga
privacy
agoda
##13
##ny
##24
##22
##by
##ur
##hz
##ang
cookie
netscape
##ka
##ad
nike
survey
##016
wikia
##32
##017
cbc
##tor
##kg
##rt
##14
campaign
##ct
##ts
##ns
##ao
##nd
##70
##ya
##il
##25
0020
897
##23
hotels
##ian
6606
##ers
##26
##day
##ay
##line
##be
talk2yam
yamservice
coco
##dy
##ies
##ha
instagram
##ot
##va
##mo
##land
ltxsw
##ation
##pa
##ol
tag
##ue
##31
oppo
##ca
##om
chrome
##ure
lol
##19
##bo
##100
##way
##ko
##do
##un
##ni
herme
##28
##up
##06
##ds
admin
##48
##015
##35
##ee
tpp
##ive
##cc
##ble
##ity
##ex
##ler
##ap
##book
##ice
##km
##mg
##ms
ebay
##29
ubuntu
##cy
##view
##lo
##oo
##02
step1
july
##net
##ls
##ii
##05
##33
step2
ios9
##box
##ley
samsung
pokemon
##ent
##les
s8
atom
##said
##55
##2014
##66
adidas
amazon
##ber
##ner
visa
##77
##der
connectivity
##hi
firefox
skip
##27
##ir
##61
##ai
##ver
cafe2017
##ron
##ster
##sk
##ft
longchamp
ssd
##ti
reply
##my
apr
##ker
source
##one
##2013
##ow
goods
##lin
##ip
##ics
##45
##03
##ff
##47
ganji
##nce
##per
faq
comment
##ock
##bs
##ah
##lv
##mp
##000
melody
17life
##au
##71
##04
##95
##age
tips
##68
##ting
##ung
wonderland
##ction
mar
article
##db
##07
##ore
##op
##78
##38
##ong
##73
##08
##ica
##36
##wa
##64
homemesh
##85
##tv
##di
macbook
##ier
##si
##75
##ok
goris
lock
##ut
carol
##vi
##ac
anti
jan
tags
##98
##51
august
##86
##fs
##sion
jordan
##tt
##lt
##42
##bc
vivi
##rry
##ted
##rn
usd
##t00
##58
##09
##34
goo
##ui
##ary
item
##pm
##41
##za
##2012
blogabstract
##ger
##62
##44
gr2
asus
cindy
##hd
esc
##od
booking
##53
fed
##81
##ina
chan
distribution
steam
pk10
##ix
##65
##91
dec
##ana
icecat
00z
##46
##ji
##ard
oct
##ain
jp
##ze
##bi
cio
##56
h5
##39
##port
curve
##nm
##dia
utc
12345678910
##52
chanel
##and
##im
##63
vera
vivo
##ei
2756
##69
msci
##po
##89
##bit
##out
##zz
##97
##67
opec
##96
##tes
##ast
##ling
##ory
##ical
kitty
##43
step3
##cn
win8
iphone7
beauty
##87
dollars
##ys
##oc
pay
##2011
##lly
##ks
download
sep
##board
##37
##lan
winrar
##que
##ua
##com
ettoday
##54
##ren
##via
##72
##79
##tch
##49
##ial
##nn
step4
2765
gov
##xx
mandy
##ser
copyright
fashion
##ist
##art
##lm
##ek
##ning
##if
##ite
iot
##84
##2010
##ku
october
##ux
trump
##hs
##ide
##ins
april
##ight
##83
protected
##fe
##ho
ofo
gomaji
march
##lla
##pp
##ec
6s
720p
##rm
##ham
##92
fandom
##ell
info
##82
sina
4066
##able
##ctor
rights
jul
##76
mall
##59
donald
sodu
##light
reserved
htm
##han
##57
##ise
##tions
##shi
doc
055
##ram
shopping
aug
##pi
##well
wam
##hu
##gb
##93
mix
##ef
##uan
bwl
##plus
##res
##ess
tea
hktvmall
##ate
##ese
feb
inn
nov
##ci
pass
##bet
##nk
coffee
airbnb
##ute
woshipm
skype
##fc
##www
##94
##ght
##gs
##ile
##wood
##uo
icon
##em
says
##king
##tive
blogger
##74
##ox
##zy
##red
##ium
##lf
nokia
claire
##ding
november
lohas
##500
##tic
##cs
##che
##ire
##gy
##ult
january
ptt
##fa
##mer
pchome
udn
##time
##tte
garden
eleven
309b
bat
##123
##tra
kindle
##ern
xperia
ces
travel
##ous
##int
edu
cho
##car
##our
##ant
rends
##jo
mastercard
##2000
kb
##min
##ino
##ris
##ud
##set
##her
##ou
taipei
##fi
##ill
aphojoy
december
meiki
##ick
tweet
##av
iphone6
##dd
views
##mark
##ash
##ome
koreanmall
##ak
q2
##200
mlb
##lle
##watch
##und
##tal
##less
4399
##rl
update
shop
##mhz
##house
##key
##001
##hy
##web
##2009
##gg
##wan
##val
2021
##ons
doi
trivago
overdope
##ance
573032185
wx17house
##so
audi
##he
##rp
##ake
beach
cfa
ps4
##800
##link
##hp
ferragamo
##eng
##style
##gi
i7
##ray
##max
##pc
september
##ace
vps
february
pantos
wp
lisa
jquery
offer
##berg
##news
fks
##all
##rus
##888
##works
blogtitle
loftpermalink
ling
##ja
outlet
##ea
##top
##ness
salvatore
##lu
swift
##ul
week
##ean
##300
##gle
##back
powered
##tan
##nes
canon
##zi
##las
##oe
##sd
##bot
##world
##zo
top100
pmi
##vr
ball
vogue
ofweek
##list
##ort
##lon
##tc
##of
##bus
##gen
nas
##lie
##ria
##coin
##bt
nata
vive
cup
##ook
##sy
msg
3ce
##word
ebooks
r8
nice
months
rewards
##ther
0800
##xi
##sc
gg
blogfp
daily
##bb
##tar
##ky
anthony
##yo
##ara
##aa
##rc
##tz
##ston
gear
##eo
##ade
##win
##ura
##den
##ita
##sm
png
rakuten
whatsapp
##use
pad
gucci
##ode
##fo
chicago
##hone
io
sogo
be2
##ology
cloud
##con
##ford
##joy
##kb
##rade
##ach
docker
##ful
##ase
ford
##star
edited
##are
##mc
siri
##ella
bloomberg
##read
pizza
##ison
##vm
node
18k
##play
##cer
##yu
##ings
asr
##lia
step5
##cd
pixstyleme
##600
##tus
tokyo
##rial
##life
##ae
tcs
##rk
##wang
##sp
##ving
premium
netflix
##lton
##ple
##cal
021
##sen
##ville
nexus
##ius
##mah
tila
##tin
resort
##ws
p10
report
##360
##ru
bus
vans
##est
links
rebecca
##dm
azure
##365
##mon
moto
##eam
blogspot
##ments
##ik
##kw
##bin
##ata
##vin
##tu
##ula
station
##ature
files
zara
hdr
top10
s6
marriott
avira
tab
##ran
##home
oculus
##ral
rosie
##force
##ini
ice
##bert
##nder
##mber
plurk
##sis
00kg
##ence
##nc
##name
log
ikea
malaysia
##ncy
##nie
##ye
##oid
##chi
xuehai
##1000
##orm
##rf
##ware
##pro
##era
##ub
##2008
8891
scp
##zen
qvod
jcb
##hr
weibo
##row
##ish
github
mate
##lot
##ane
##tina
ed2k
##vel
##900
final
ns
bytes
##ene
##cker
##2007
##px
topapp
helpapp
14k
g4g
ldquo
##fork
##gan
##zon
##qq
##google
##ism
##zer
toyota
category
##labels
restaurant
##md
posts
##ico
angelababy
123456
sports
candy
##new
##here
swissinfo
dram
##ual
##vice
##wer
sport
q1
ios10
##mll
wan
##uk
x3
0t
##ming
e5
##3d
h7n9
worldcat
##vo
##led
##580
##ax
##ert
polo
##lr
##hing
##chat
##ule
hotmail
##pad
bbq
##ring
wali
2k
costco
switch
##city
philips
##mann
panasonic
##cl
##vd
##ping
##rge
##lk
css3
##ney
##ular
##400
##tter
lz
##tm
##yan
##let
coach
##pt
a8
follow
##berry
##ew
##wn
##og
##code
##rid
villa
git
r11
##cket
error
##anonymoussaid
##ag
##ame
##gc
qa
##lis
##gin
vmalife
##cher
wedding
##tis
demo
bye
##rant
orz
acer
##ats
##ven
macd
yougou
##dn
##ano
##urt
##rent
continue
script
##wen
##ect
paper
##chel
##cat
x5
fox
##blog
loading
##yn
##tp
kuso
799
vdc
forest
prime
ultra
##rmb
square
##field
##reen
##ors
##ju
##air
##map
cdn
##wo
m8
##get
opera
##base
##ood
vsa
##aw
##ail
count
##een
##gp
vsc
tree
##eg
##ose
##ories
##shop
alphago
v4
fluke62max
zip
##sta
bas
##yer
hadoop
##ube
##wi
0755
hola
##low
centre
##fer
##750
##media
##san
##bank
q3
##nge
##mail
##lp
client
event
vincent
##nse
sui
adchoice
##stry
##zone
ga
apps
##ab
##rner
kymco
##care
##pu
##yi
minkoff
annie
collection
kpi
playstation
bh
##bar
armani
##xy
iherb
##ery
##share
##ob
volvo
##ball
##hk
##cp
##rie
##ona
##sl
gtx
rdquo
jayz
##lex
##rum
namespace
##ale
##atic
##erson
##ql
##ves
##type
enter
##168
##mix
##bian
a9
ky
##lc
movie
##hc
tower
##ration
##mit
##nch
ua
tel
prefix
##o2
##point
ott
##http
##ury
baidu
##ink
member
##logy
bigbang
nownews
##js
##shot
##tb
eba
##tics
##lus
spark
##ama
##ions
##lls
##down
##ress
burberry
day2
##kv
related
edit
##ark
cx
32gb
g9
##ans
##tty
s5
##bee
thread
xr
buy
spotify
##ari
##verse
7headlines
nego
sunny
dom
positioning
fit
##tton
alexa
##ties
##llow
amy
##du
##rth
##lar
2345
##des
sidebar
site
##cky
##kit
##ime
##009
season
##fun
gogoro
a7
lily
twd600
##vis
##cture
friday
yi
##tta
##tel
##lock
economy
tinker
8gb
##app
oops
##right
edm
##cent
supreme
##its
##asia
dropbox
##tti
books
##tle
##ller
##ken
##more
##boy
sex
##dom
##ider
##unch
##put
##gh
ka
amoled
div
##tr
##n1
port
howard
##tags
ken
##nus
adsense
buff
thunder
##town
##ique
##body
pin
##erry
tee
##the
##013
udnbkk
16gb
##mic
miui
##tro
##alk
##nity
s4
##oa
docomo
##tf
##ack
fc2
##ded
##sco
##014
##rite
linkedin
##ada
##now
##ndy
ucbug
sputniknews
legalminer
##ika
##xp
##bu
q10
##rman
cheese
ming
maker
##gm
nikon
##fig
ppi
jchere
ted
fgo
tech
##tto
##gl
##len
hair
img
##pper
##a1
acca
##ition
##ference
suite
##ig
##mond
##cation
##pr
101vip
##999
64gb
airport
##over
##ith
##su
town
piece
##llo
no1
##qi
focus
reader
##admin
##ora
false
##log
##ces
##ume
motel
##oper
flickr
netcomponents
##af
pose
##ound
##cg
##site
##iko
con
##ath
##hip
##rey
cream
##cks
012
##dp
facebooktwitterpinterestgoogle
sso
shtml
swiss
##mw
lumia
xdd
tiffany
insee
russell
dell
##ations
camera
##vs
##flow
##late
classic
##nter
##ever
##lab
##nger
qe
##cing
editor
##nap
sunday
##ens
##700
##bra
acg
sofascore
mkv
##ign
jonathan
build
labels
##oto
tesla
moba
gohappy
ajax
##test
##urs
wps
fedora
##ich
mozilla
##480
##dr
urn
##lina
grace
##die
##try
##ader
elle
##chen
price
##ten
uhz
##ough
##hen
states
push
session
balance
wow
##cus
##py
##ward
##ep
34e
wong
prada
##cle
##ree
q4
##ctive
##ool
##ira
##163
rq
buffet
e6
##ez
##card
##cha
day3
eye
##end
adi
tvbs
##ala
nova
##tail
##ries
##ved
base
##ways
hero
hgih
profile
fish
mu
ssh
##wd
click
cake
##ond
pre
##tom
kic
pixel
##ov
##fl
product
6a
##pd
dear
##gate
yumi
##sky
bin
##ture
##ape
isis
nand
##101
##load
##ream
a6
##post
##we
zenfone
##ike
gd
forum
jessica
##ould
##ious
lohasthree
##gar
##ggle
##ric
##own
eclipse
##side
061
##other
##tech
##ator
engine
##ged
plaza
##fit
westbrook
reuters
##ily
contextlink
##hn
##cil
##cel
cambridge
##ize
##aid
##data
frm
##head
butler
##sun
##mar
puma
pmid
kitchen
##lic
day1
##text
##page
##rris
pm1
##ket
trackback
##hai
display
##hl
idea
##sent
airmail
##ug
##men
028
##lution
schemas
asics
wikipedia
##tional
##vy
##dget
##ein
contact
pepper
##uel
##ument
##hang
q5
##sue
##ndi
swatch
##cept
popular
##ste
##tag
trc
##west
##live
honda
ping
messenger
##rap
v9
unity
appqq
leo
##tone
##ass
uniqlo
##010
moneydj
##tical
12306
##m2
coc
miacare
##mn
tmt
##core
vim
kk
##may
target
##2c
##ope
omega
pinkoi
##rain
##ement
p9
rd
##tier
##vic
zone
isofix
cpa
kimi
##lay
lulu
##uck
050
weeks
##hop
##ear
eia
##fly
korea
boost
##ship
eur
valley
##iel
##ude
rn
##ena
feed
5757
qqmei
##thing
aws
pink
##ters
##kin
board
##vertisement
wine
##ien
##dge
##tant
##twitter
##3c
cool1
##012
##150
##fu
##iner
googlemsn
pixnetfacebookyahoo
x7
##uce
sao
##ev
##file
9678
xddd
shirt
##rio
##hat
givenchy
bang
##lio
monday
##abc
ubuntuforumwikilinuxpastechat
##vc
##rity
7866
##ost
imsean
tiger
##fet
dji
##come
##beth
##aft
##don
3p
emma
##khz
x6
##face
pptv
x4
##mate
sophie
##jing
fifa
##mand
sale
inwedding
##gn
##mmy
##pmlast
nana
##wu
note7
##340
##bel
window
##dio
##ht
##ivity
domain
neo
##isa
##lter
5k
f5
##cts
ft
zol
##act
mwc
nbapop
eds
##room
previous
tomtom
##ets
5t
chi
##hg
fairmont
gay
1b
##raph
##ils
i3
avenue
##host
##bon
##tsu
message
navigation
fintech
h6
##ject
##vas
##firm
credit
##wf
xxxx
##nor
##space
huawei
plan
json
sbl
##dc
wish
##120
##sol
windows7
washington
##nsis
lo
##sio
##ym
##bor
planet
##wt
gpa
##tw
##oka
connect
##rss
##work
##atus
chicken
##times
fa
##ather
##cord
009
##eep
hitachi
##pan
disney
##press
wind
frigidaire
##tl
hsu
##ull
expedia
archives
##wei
cut
ins
6gb
brand
cf1
##rip
##nis
128gb
3t
##oon
quick
15058
wing
##bug
##cms
##dar
##oh
zoom
trip
##nba
rcep
aspx
080
gnu
##count
##url
##ging
8591
am09
shadow
##cia
emily
##tation
host
ff
techorz
##mini
##mporary
##ering
##next
cma
##mbps
##gas
##ift
##dot
amana
##ros
##eet
##ible
##aka
##lor
maggie
##011
##iu
##gt
1tb
articles
##burg
##iki
database
fantasy
##rex
##cam
dlc
dean
##you
path
gaming
victoria
maps
##lee
##itor
overchicstoretvhome
##xt
##nan
x9
install
##ann
##ph
##rcle
##nic
##nar
metro
chocolate
##rian
##table
skin
##sn
mountain
##0mm
inparadise
7x24
##jia
eeworld
creative
g5
parker
ecfa
village
sylvia
hbl
##ques
##onsored
##x2
##v4
##tein
ie6
##stack
ver
##ads
##baby
bbe
##110
##lone
##uid
ads
022
gundam
006
scrum
match
##ave
##470
##oy
##talk
glass
lamigo
##eme
##a5
wade
kde
##lace
ocean
tvg
##covery
##r3
##ners
##rea
##aine
cover
##ision
##sia
##bow
msi
##love
soft
z2
##pl
mobil
##uy
nginx
##oi
##rr
6221
##mple
##sson
##nts
91tv
comhd
crv3000
##uard
gallery
##bia
rate
spf
redis
traction
icloud
011
jose
##tory
sohu
899
kicstart2
##hia
##sit
##walk
##xure
500g
##pact
xa
carlo
##250
##walker
##can
cto
gigi
pen
##hoo
ob
##yy
13913459
##iti
mango
##bbs
sense
oxford
walker
jennifer
##ola
course
##bre
##pus
##rder
lucky
075
ivy
##nia
sotheby
##ugh
joy
##orage
##ush
##bat
##dt
r9
##2d
##gio
wear
##lax
##moon
seven
lonzo
8k
evolution
##kk
kd
arduino
##lux
arpg
##rdon
cook
##x5
five
##als
##ida
sign
##nda
##posted
fresh
##mine
##skip
##form
##ssion
##tee
dyson
stage
##jie
##night
epson
pack
##ppy
wd
##eh
##rence
##lvin
golden
discovery
##trix
##n2
loft
##uch
##dra
##sse
1mdb
welcome
##urn
gaga
##lmer
teddy
##160
##f2016
##sha
rar
holiday
074
##vg
##nos
##rail
gartner
gi
6p
##dium
kit
b3
eco
sean
##stone
nu
##np
f16
write
029
m5
##ias
##dk
fsm
52kb
##xxx
##cake
lim
ru
1v
##ification
published
angela
16g
analytics
##nel
gmt
##icon
##bby
ios11
waze
9985
##ust
##007
delete
52sykb
wwdc
027
##fw
1389
##xon
brandt
##ses
##dragon
vetements
anne
monte
official
##ere
##nne
##oud
etnews
##a2
##graphy
##rtex
##gma
mount
archive
morning
tan
ddos
e7
day4
factory
bruce
##ito
guest
##lling
n3
mega
women
dac
church
##jun
singapore
##facebook
6991
starbucks
##tos
##stin
##shine
zen
##mu
tina
request
##gence
q7
##zzi
diary
##tore
##ead
cst
##osa
canada
va
##jiang
##lam
##nix
##sday
g6
##master
bing
##zl
nb40
thai
ln284ct
##itz
##2f
bonnie
##food
##lent
originals
##stro
##lts
##bscribe
ntd
yesstyle
hmv
##tment
d5
##pn
topios9
lifestyle
virtual
##ague
xz
##deo
muji
024
unt
##nnis
faq1
##ette
curry
##pop
release
##cast
073
##ews
5c
##stle
ios7
##ima
dog
lenovo
##r4
013
vornado
##desk
##ald
9595
##van
oil
common
##jy
##lines
g7
twice
ella
nano
belle
##mes
##self
##note
benz
##ova
##wing
kai
##hua
##rect
rainer
##unge
##0m
guestname
##uma
##kins
##zu
tokichoi
##price
##med
##mus
rmk
address
vm
openload
##group
##hin
##iginal
amg
urban
##oz
jobs
##public
##sch
##dden
##bell
hostel
##drive
##rmin
boot
##370
##fx
##nome
##ctionary
##oman
##lish
##cr
##hm
##how
francis
c919
b5
evernote
##uc
##3000
coupe
##urg
##cca
##uality
019
##ett
##ani
##tax
##rma
leonnhurt
##jin
ict
bird
notes
##dical
##lli
result
iu
ee
smap
gopro
##last
yin
pure
32g
##dan
##rame
mama
##oot
bean
##hur
2l
bella
sync
xuite
##ground
discuz
##getrelax
##ince
##bay
##5s
apt
##pass
jing
##rix
rich
niusnews
##ello
bag
##eting
##mobile
##ience
details
universal
silver
dit
private
ddd
u11
kanshu
##ified
fung
##nny
dx
##520
tai
023
##fr
##lean
##pin
##rin
ly
rick
##bility
banner
##baru
##gion
vdf
qualcomm
bear
oldid
ian
jo
##tors
population
##ernel
##mv
##bike
ww
##ager
exhibition
##del
##pods
fpx
structure
##free
##tings
kl
##rley
##copyright
##mma
orange
yoga
4l
canmake
honey
##anda
nikkie
dhl
publishing
##mall
##gnet
e88
##dog
fishbase
###
##[
。
！
？
!
?
；
:
;
<S>
<T>
"
$
%
&
'
(
)
*
+
-
/
<
=
>
@
\
]
^
_
{
|
}
~
£
¤
¥
§
©
«
®
°
±
²
³
µ
·
¹
º
»
¼
×
ß
æ
÷
ø
đ
ŋ
ɔ
ə
ɡ
ʰ
ˇ
ˈ
ˊ
ˋ
ˍ
ː
˙
˚
ˢ
α
β
γ
δ
ε
η
θ
ι
κ
λ
μ
ν
ο
π
ρ
ς
σ
τ
υ
φ
χ
ψ
ω
а
б
в
г
д
е
ж
з
и
к
л
м
н
о
п
р
с
т
у
ф
х
ц
ч
ш
ы
ь
я
і
ا
ب
ة
ت
د
ر
س
ع
ل
م
ن
ه
و
ي
۩
ก
ง
น
ม
ย
ร
อ
า
เ
๑
་
ღ
ᄀ
ᄁ
ᄂ
ᄃ
ᄅ
ᄆ
ᄇ
ᄈ
ᄉ
ᄋ
ᄌ
ᄎ
ᄏ
ᄐ
ᄑ
ᄒ
ᅡ
ᅢ
ᅣ
ᅥ
ᅦ
ᅧ
ᅨ
ᅩ
ᅪ
ᅬ
ᅭ
ᅮ
ᅯ
ᅲ
ᅳ
ᅴ
ᅵ
ᆨ
ᆫ
ᆯ
ᆷ
ᆸ
ᆺ
ᆻ
ᆼ
ᗜ
ᵃ
ᵉ
ᵍ
ᵏ
ᵐ
ᵒ
ᵘ
‖
„
†
•
‥
‧
‰
′
″
‹
›
※
‿
⁄
ⁱ
⁺
ⁿ
₁
₂
₃
₄
€
℃
№
™
ⅰ
ⅱ
ⅲ
ⅳ
ⅴ
←
↑
→
↓
↔
↗
↘
⇒
∀
−
∕
∙
√
∞
∟
∠
∣
∥
∩
∮
∶
∼
∽
≈
≒
≡
≤
≥
≦
≧
≪
≫
⊙
⋅
⋈
⋯
⌒
①
②
③
④
⑤
⑥
⑦
⑧
⑨
⑩
⑴
⑵
⑶
⑷
⑸
⒈
⒉
⒊
⒋
ⓒ
ⓔ
ⓘ
─
━
│
┃
┅
┆
┊
┌
└
├
┣
═
║
╚
╞
╠
╭
╮
╯
╰
╱
╳
▂
▃
▅
▇
█
▉
▋
▌
▍
▎
■
□
▪
▫
▬
▲
△
▶
►
▼
▽
◆
◇
○
◎
●
◕
◠
◢
◤
☀
★
☆
☕
☞
☺
☼
♀
♂
♠
♡
♣
♥
♦
♪
♫
♬
✈
✔
✕
✖
✦
✨
✪
✰
✿
❀
❤
➜
➤
⦿
〃
々
〇
〈
〉
「
」
『
』
【
】
〓
〔
〕
〖
〗
〜
〝
〞
ぁ
あ
ぃ
い
う
ぇ
え
お
か
き
く
け
こ
さ
し
す
せ
そ
た
ち
っ
つ
て
と
な
に
ぬ
ね
の
は
ひ
ふ
へ
ほ
ま
み
む
め
も
ゃ
や
ゅ
ゆ
ょ
よ
ら
り
る
れ
ろ
わ
を
ん
゜
ゝ
ァ
ア
ィ
イ
ゥ
ウ
ェ
エ
ォ
オ
カ
キ
ク
ケ
コ
サ
シ
ス
セ
ソ
タ
チ
ッ
ツ
テ
ト
ナ
ニ
ヌ
ネ
ノ
ハ
ヒ
フ
ヘ
ホ
マ
ミ
ム
メ
モ
ャ
ヤ
ュ
ユ
ョ
ヨ
ラ
リ
ル
レ
ロ
ワ
ヲ
ン
ヶ
・
ー
ヽ
ㄅ
ㄆ
ㄇ
ㄉ
ㄋ
ㄌ
ㄍ
ㄎ
ㄏ
ㄒ
ㄚ
ㄛ
ㄞ
ㄟ
ㄢ
ㄤ
ㄥ
ㄧ
ㄨ
ㆍ
㈦
㊣
㎡
㗎
丟
両
並
丨
丼
丿
乗
乩
亀
亂
亙
亜
亞
仏
仮
伕
佇
佈
佔
佢
併
來
侖
価
侶
侷
係
俠
俬
倆
倉
個
們
倖
値
倫
倶
偉
側
偵
偽
傑
傘
備
傚
傢
傭
傳
債
傷
傾
僅
働
僑
僕
僥
僱
價
儀
儂
億
儉
儕
儘
償
優
儲
儷
儼
兇
兌
児
兒
內
兩
兲
円
冇
冊
冏
冨
冪
冾
凈
凍
凜
処
凪
凱
別
刪
則
剉
剋
剎
剛
剝
剣
剤
創
剷
劃
劇
劉
劊
劍
劏
劑
労
効
勁
動
務
勛
勝
勞
勢
勧
勳
勵
勸
勻
匯
匱
區
協
卻
厭
厲
厳
參
叢
吳
吶
吽
呂
呲
咁
咗
咘
咣
咭
哂
哋
哐
員
唄
唰
唷
唸
問
啓
啞
啟
啫
啱
啲
啵
啷
喎
喚
喪
喫
喬
單
喰
喲
営
喺
嗆
嗇
嗎
嗚
嗰
嗶
嘆
嘍
嘔
嘖
嘗
嘚
嘜
嘢
嘣
嘩
嘮
嘯
嘰
嘸
噁
噌
噓
噔
噠
噴
噸
噹
嚀
嚇
嚐
嚕
嚟
嚥
嚨
嚮
嚴
囂
囉
囍
囑
囔
囝
囟
団
囪
囫
囲
図
國
圍
圏
園
圓
圖
團
圧
坵
垚
垵
埗
埤
埵
執
埸
埼
堅
堙
堯
報
場
堺
堿
塊
塗
塚
塢
塩
塭
塵
墊
増
墘
墜
墮
墳
墻
墾
壆
壇
壊
壓
壘
壞
壟
壢
壩
壯
売
壺
壽
夠
夢
夾
奐
奧
奪
奬
奮
妘
妝
妳
姉
姍
姦
姪
姫
娛
婁
婊
婦
婭
媞
媧
媽
嫑
嫚
嫲
嫵
嫻
嬅
嬌
嬢
嬤
嬪
嬰
嬸
嬿
孃
孖
孫
孬
學
孿
宮
寛
寢
實
寧
審
寫
寬
寵
寶
専
將
專
尋
對
導
尷
屄
屆
屜
屢
層
屬
岀
岡
峇
峴
島
峽
崁
崑
崗
崙
嵐
嶄
嶇
嶋
嶺
嶼
嶽
巒
巔
巿
帥
師
帯
帰
帳
帶
幀
幟
幣
幫
幹
幾
庁
広
庫
庹
廁
廂
廃
廈
廚
廝
廟
廠
廢
廣
廬
廳
弒
弔
張
強
弾
彅
彆
彈
彌
彎
彙
彥
彫
彿
徑
従
從
徠
復
徬
徴
徹
忪
怼
恆
恥
恫
恵
悅
悩
悪
悵
悶
悽
惡
惱
愛
愜
愷
慄
態
慘
慚
慟
慣
慫
慮
慳
慶
慾
憂
憊
憐
憑
憚
憤
憫
憲
憶
懇
應
懲
懶
懷
懸
懺
懼
懾
戀
戰
戲
戶
戻
払
扱
抜
択
拋
拡
挙
挾
捌
捨
捩
捲
掃
掙
掛
採
掲
掴
揀
揃
揚
換
揮
揶
揸
揹
損
搖
搗
搡
搵
搶
摀
摟
摯
摳
摻
撈
撐
撓
撚
撥
撫
撲
撻
撿
擁
擄
擇
擊
擋
擔
據
擠
擡
擬
擰
擱
擲
擴
擷
擺
擼
擾
攏
攔
攙
攜
攝
攞
攢
攣
攤
攪
攬
敍
敎
敗
敘
敵
數
斂
斃
斎
斬
斷
旮
時
晉
晝
晩
暈
暉
暌
暐
暢
暫
暱
暸
曄
曆
曇
曉
曖
曠
曬
書
會
朧
朮
東
枰
枱
柵
栃
栄
桜
桿
條
梟
梶
棄
棗
棟
棧
棲
椋
椪
楊
楓
楨
業
極
榖
榮
榱
構
槍
槓
槤
槳
槻
樁
樂
樑
樓
標
樞
樣
権
樫
樸
樹
樺
橋
機
橢
橫
檎
檔
檜
檢
檯
檳
檸
檻
櫃
櫚
櫛
櫥
櫸
櫻
欄
權
欒
欖
欸
欽
歎
歐
歓
歛
歡
歩
歯
歲
歳
歴
歷
歸
殘
殞
殤
殭
殯
殲
殺
殼
毀
毆
毘
氈
氣
氫
氷
氹
氾
汆
汎
汙
決
沒
沖
況
洩
洶
洸
浄
浬
涇
涙
涠
涼
淒
淚
淨
淩
淪
淵
淺
済
渉
渋
渙
減
渦
測
渾
湊
湧
湯
湳
満
準
溝
溫
溼
滄
滅
滌
滙
滝
滬
滯
滲
滷
滸
滾
滿
漁
漢
漣
漬
漲
漸
漿
潆
潑
潔
潛
潤
潧
潰
澀
澆
澗
澤
澱
濁
濃
濕
濘
濟
濤
濫
濱
濺
濾
瀅
瀆
瀉
瀋
瀏
瀕
瀘
瀝
瀞
瀟
瀧
瀨
瀬
瀰
瀾
灑
灘
灝
灣
灬
災
為
烏
無
焼
煉
煒
煖
煙
煥
煩
熒
熱
熾
燁
燄
燈
燉
燒
燙
燜
營
燦
燭
燴
燻
燼
燿
爍
爐
爛
爭
爲
爺
爾
牆
牠
牴
牽
犢
犧
狀
狹
狽
猙
猶
獄
獅
獎
獣
獨
獰
獲
獵
獷
獸
獺
獻
獼
珮
現
琍
琲
琺
瑋
瑣
瑤
瑩
瑪
瑯
璁
璉
環
璽
璿
瓊
瓏
甌
甕
產
産
甦
畀
畝
畢
畫
異
畳
當
疇
疊
痙
痠
痱
痺
瘋
瘍
瘓
瘡
瘧
療
癇
癒
癡
癢
癥
癬
癮
癱
癲
發
皚
皰
皺
盃
盜
盞
盡
監
盧
盪
県
眞
眾
睏
睜
睞
睪
瞇
瞓
瞞
瞼
矇
矍
矚
矯
砗
砲
硯
碩
確
碼
磚
磡
磯
磲
礎
礙
礡
礦
礪
礫
祂
祿
禍
禎
禦
禪
禮
禱
禿
稅
稟
種
稱
稲
穀
穂
穌
積
穎
穢
穩
穫
窓
窩
窪
窮
窯
窺
竄
竅
竇
竊
竜
競
笹
筆
筊
筍
筲
箋
箏
箝
節
範
築
篠
篤
篩
篪
簍
簡
簦
簫
簷
簽
簾
籃
籌
籐
籟
籠
籤
籬
籮
籲
粄
粧
粵
糞
糧
糬
糰
糾
紀
紂
約
紅
紉
紋
納
紐
紓
純
紗
紘
紙
級
紛
紜
紡
紮
細
紳
紹
紺
終
絃
組
絆
結
絕
絞
絡
絢
給
絨
統
絲
絳
絵
絶
絹
綁
綏
綑
經
継
綜
綠
綢
綫
綬
維
綱
網
綴
綵
綸
綺
綻
綽
綾
綿
緊
緋
総
緑
緒
緘
線
緝
緞
締
緣
編
緩
緬
緯
練
緹
緻
縁
縄
縈
縛
縝
縣
縫
縮
縱
縴
縷
總
績
繃
繆
繋
織
繕
繚
繞
繡
繩
繪
繫
繭
繳
繹
繼
繽
續
纍
纏
纓
纔
纖
纜
缽
罌
罰
罵
罷
羅
羈
羥
羨
義
習
翹
聖
聞
聯
聰
聲
聳
聴
聶
職
聽
聾
肅
肏
脅
脇
脈
脛
脣
脫
脳
脹
腎
腦
腫
腳
腸
膚
膠
膩
膽
膾
膿
臉
臍
臓
臘
臟
臥
臨
臺
與
興
舉
舊
舎
舖
舗
舺
舾
艋
艙
艦
艱
艷
艹
芃
芻
茲
茼
荊
荖
荘
荳
莊
莖
莢
莧
莿
菈
菓
華
菸
萁
萊
萩
萬
萵
葉
葦
葯
葷
蒔
蒞
蒟
蒨
蒻
蒼
蓆
蓋
蓮
蔔
蔘
蔣
蔥
蔭
蔵
蕁
蕎
蕩
蕪
蕭
蕻
薅
薈
薊
薑
薔
薦
薩
薬
藍
藝
藥
藹
蘆
蘊
蘋
蘚
蘭
蘿
處
虛
虜
號
虧
蚵
蛻
蜆
蝕
蝟
蝦
蝨
蝸
螞
螢
蟄
蟎
蟬
蟲
蟻
蠅
蠍
蠔
蠛
蠟
蠣
蠱
蠶
蠻
衆
術
衛
衝
衞
衹
袞
袪
裊
補
裝
裡
製
複
褔
褫
褲
褻
襠
襪
襬
襯
襲
覇
見
規
覓
視
覚
覦
親
覬
観
覷
覺
覽
觀
觸
訂
計
訊
討
訓
訕
訖
託
記
訛
訝
訟
訣
訥
訪
設
許
訳
訴
訶
診
註
証
詆
詐
詔
評
詛
詞
詠
詡
詢
詣
試
詩
詫
詬
詭
詮
詰
話
該
詳
詼
誅
誇
誌
認
誕
誘
語
誠
誡
誣
誤
誥
誦
誨
說
説
誰
課
誹
誼
調
諄
談
請
諏
諒
論
諗
諜
諡
諦
諧
諫
諭
諮
諱
諳
諷
諸
諺
諾
謀
謁
謂
謄
謊
謎
謐
謔
謗
謙
講
謝
謠
謨
謬
謹
謾
譁
證
譎
譏
識
譙
譚
譜
譯
議
譲
譴
護
譽
讀
變
讓
讚
讞
豈
豊
豎
豐
豔
豬
貓
貝
貞
負
財
貢
貧
貨
販
貪
貫
責
貯
貰
貳
貴
貶
買
貸
費
貼
貽
貿
賀
賁
賂
賃
賄
資
賈
賊
賑
賓
賜
賞
賠
賡
賢
賣
賤
賦
質
賬
賭
賴
賺
購
賽
贅
贈
贊
贍
贏
贓
贖
贛
趕
趙
趨
跡
跩
踐
踟
踴
蹟
蹣
蹤
蹺
躉
躊
躋
躍
躪
軀
車
軋
軌
軍
軒
軟
転
軸
軼
軽
軾
較
載
輒
輓
輔
輕
輛
輝
輟
輩
輪
輯
輸
輻
輾
輿
轄
轅
轆
轉
轍
轎
轟
辦
辭
辮
辯
農
辺
辻
込
迴
迺
逕
這
連
週
進
遅
遊
運
過
達
違
遙
遜
遞
遠
適
遲
遶
遷
選
遺
遼
邁
還
邇
邊
邏
郵
郷
鄉
鄒
鄔
鄧
鄭
鄰
鄲
鄺
醃
醜
醞
醣
醫
醬
醯
釀
釁
釋
釗
釘
針
釣
釦
釧
釵
鈀
鈉
鈍
鈎
鈔
鈕
鈞
鈣
鈦
鈪
鈴
鈺
鈾
鉀
鉄
鉅
鉉
鉑
鉗
鉚
鉛
鉤
鉻
銀
銃
銅
銑
銓
銖
銘
銜
銬
銭
銳
銷
銹
鋁
鋅
鋒
鋤
鋪
鋰
鋸
鋼
錄
錐
錘
錚
錠
錢
錦
錨
錫
錮
錯
錳
錶
鍋
鍍
鍛
鍥
鍰
鍵
鍺
鍾
鎂
鎊
鎌
鎔
鎖
鎗
鎚
鎧
鎬
鎮
鎳
鏈
鏗
鏘
鏞
鏟
鏡
鏢
鏤
鏽
鐘
鐮
鐲
鐳
鐵
鐸
鐺
鑄
鑊
鑑
鑒
鑣
鑰
鑲
鑼
鑽
鑾
鑿
铩
長
門
閃
閉
開
閎
閏
閑
閒
間
閔
閘
閡
閣
閥
閨
閩
閱
閲
閹
閻
閾
闆
闊
闌
闍
闔
闕
闖
闘
關
闡
闢
陝
陞
陣
陰
陳
陸
険
陽
隊
階
隕
際
隠
隣
隨
險
隱
隴
隸
隻
雋
雑
雖
雙
雛
雜
雞
離
難
雰
雲
電
霊
霑
霧
霽
靂
靄
靈
靚
靜
靦
鞏
鞦
韆
韋
韌
韓
韜
韻
響
頁
頂
頃
項
順
須
頌
預
頑
頒
頓
頗
領
頜
頡
頤
頭
頰
頷
頸
頹
頻
頼
顆
題
額
顎
顏
顔
願
顛
類
顧
顫
顯
顱
顴
風
颯
颱
颳
颶
颼
飄
飆
飛
飢
飩
飪
飯
飲
飼
飽
飾
餃
餅
餉
養
餌
餒
餓
餘
餚
餛
餞
餡
館
餵
餾
饅
饈
饋
饌
饍
饑
饒
饗
饞
馬
馭
馮
馳
馴
駁
駄
駅
駆
駐
駒
駕
駛
駝
駭
駱
駿
騁
騎
騏
験
騙
騨
騰
騷
驀
驅
驊
驍
驒
驕
驗
驚
驛
驟
驢
驥
骯
髏
髒
體
髖
髪
髮
鬆
鬍
鬚
鬢
鬥
鬧
鬱
魘
魚
魯
魷
鮑
鮨
鮪
鮭
鮮
鯉
鯊
鯖
鯛
鯨
鯰
鯽
鰍
鰓
鰭
鰲
鰻
鰾
鱈
鱉
鱔
鱗
鱷
鱸
鲱
鳥
鳩
鳳
鳴
鳶
鴉
鴕
鴛
鴦
鴨
鴻
鴿
鵑
鵜
鵝
鵡
鵬
鵰
鵲
鶘
鶩
鶯
鶴
鷗
鷲
鷹
鷺
鸚
鸞
鹕
鹵
鹹
鹼
鹽
麗
麥
麩
麵
麺
黃
點
黨
黴
齁
齊
齋
齒
齡
齢
齣
齦
龅
龍
龐
龔
龕
龜
︰
︱
︶
︿
﹁
﹂
﹍
﹏
﹐
﹑
﹒
﹔
﹕
﹖
﹗
﹙
﹚
﹝
﹞
﹡
﹣
＂
＃
＄
％
＆
＇
＊
＋
－
．
／
０
１
２
３
４
５
６
７
８
９
＜
＝
＞
＠
［
＼
］
＾
＿
｀
ａ
ｂ
ｃ
ｄ
ｅ
ｆ
ｇ
ｈ
ｉ
ｊ
ｋ
ｌ
ｍ
ｎ
ｏ
ｐ
ｑ
ｒ
ｓ
ｔ
ｕ
ｖ
ｗ
ｘ
ｙ
ｚ
｛
｜
｝
～
｡
｢
｣
､
･
ｯ
ｰ
ｲ
ｸ
ｼ
ｽ
ﾄ
ﾉ
ﾌ
ﾗ
ﾙ
ﾝ
ﾞ
ﾟ
￣
￥
👍
🔥
😂
😎
...
丂
丌
乇
乕
乚
乢
乣
乤
乥
乧
乨
乪
乫
乬
乭
乮
乯
乲
乴
乵
乶
乷
乸
乹
乺
乻
乼
乽
乿
亁
亃
亄
亅
亇
亊
亍
亐
亖
亗
亝
亠
亣
亪
亯
亰
亱
亴
亷
亸
亻
亼
亽
亾
仂
仈
仉
仌
仐
仒
仚
仜
仠
仢
仦
仧
仩
仫
仭
仱
仳
仴
仵
仸
仹
仺
仼
仾
伀
伂
伄
伅
伆
伇
伈
伌
伓
伔
伖
伛
伜
伡
伣
伥
伧
伨
伩
伬
伭
伮
伱
伲
伳
伵
伷
伹
伻
伾
伿
佀
佁
佂
佄
佅
佉
佊
佋
佌
佒
佖
佡
佦
佧
佨
佪
佫
佭
佮
佱
佲
佴
佸
佽
佾
侀
侁
侅
侇
侉
侊
侌
侎
侐
侒
侓
侕
侘
侙
侚
侜
侞
侢
侤
俒
俓
俕
俖
俙
俛
俜
俢
俣
俤
俥
俧
俫
俰
俲
俴
俵
俷
俹
俻
俼
俽
俿
倀
倁
倂
倃
倄
倇
倈
倊
倎
倐
倕
倗
倛
倝
倠
倢
倣
倥
倧
倮
倯
倰
倱
倳
倴
倵
倷
倸
倹
倻
倽
倿
偀
偂
偄
偅
偆
偊
偍
偐
偑
偒
偓
偔
偖
偗
偘
偙
偛
偝
偟
偠
偡
偢
偣
偤
偦
偧
偨
偩
偪
偫
偬
偭
偮
偯
偰
偱
偲
偳
偸
偹
偺
偼
偾
傁
傃
傄
傇
傉
傊
傋
傌
傎
傏
傐
傒
傓
傔
傖
傗
傜
傝
傞
傟
傠
傡
傤
傦
傧
傫
傯
傱
傴
傶
傸
傹
傺
傼
傽
僛
僝
僞
僟
僠
僡
僢
僣
僦
僨
僩
僪
僫
僬
僯
僲
僴
僶
僷
僺
僼
僽
僾
僿
儁
儅
儇
儈
儊
儍
儎
儏
儐
儔
儖
儗
儙
儚
儛
儜
儝
儞
儠
儢
儣
儤
儥
儦
儧
儨
儩
儫
儬
儭
儮
儯
儰
儸
儹
儺
儻
儽
兂
兊
兎
兏
兓
兕
兗
兘
兙
兛
兝
兞
兟
兠
兡
兣
兤
兦
兪
兯
兺
兾
兿
冁
冂
冃
冄
冋
冎
冐
冑
冔
冖
冚
冝
冞
冟
冡
冣
冦
冧
冩
冫
冭
冮
冱
冴
冸
冹
冺
冿
凁
凂
凃
凅
凊
凎
凐
凒
凓
凔
凕
凖
凗
凘
凵
刂
刐
刓
刔
刕
刖
刜
刞
刟
刡
刢
刣
刦
刧
刬
刭
刯
刱
刲
刴
刵
刼
刾
刿
剀
剄
剅
剆
剈
剏
剒
剓
剕
剗
剘
剙
剚
剞
剟
剠
剢
剦
剨
剫
剭
剮
剰
剱
剳
剴
剶
剹
剺
剻
剼
剾
劀
劁
劂
劅
劆
劋
劌
劎
劐
劒
劓
劔
劕
劖
劗
劙
劚
劜
劢
劤
劥
劦
劧
劬
劮
劯
劰
劶
劷
劸
劺
劻
劼
劽
勀
勂
勄
勅
勆
勈
勊
勌
勍
勎
勏
勓
勔
勗
勚
勠
勡
勦
勨
勩
勪
勫
勬
勭
勮
勯
勱
勲
勴
勶
勷
勹
勼
勽
匁
匂
匃
匄
匇
匉
匊
匌
匎
匑
匚
匦
匸
匽
卂
卄
卆
卋
卌
卐
卙
卛
卝
卣
卥
卨
卩
卪
卬
卭
卲
卶
卹
卺
卼
卾
厀
厁
厃
厇
厈
厊
厍
厏
厐
厒
厓
厔
厗
厙
厛
厜
厞
厠
厡
厤
厧
厪
厫
厬
厯
厰
厴
厵
厶
厺
厼
厽
厾
叀
叆
叇
叏
叐
叒
叓
叕
叚
叜
叝
叧
叴
叺
叾
叿
吀
吅
吇
吔
吘
吙
吚
吜
吢
吣
吥
吪
吰
吺
吿
呁
呄
呅
呇
呉
呍
呏
呔
呖
呙
呚
呝
呞
呟
呠
呡
呥
呧
呩
呪
呬
呭
呮
呯
呶
呹
呿
咃
咅
咇
咈
咉
咊
咍
咑
咓
咜
咝
咞
咟
咠
咡
咢
咴
哓
哕
哜
哝
哞
哰
哱
哳
哴
哵
哶
哸
哹
哻
哾
哿
唀
唂
唃
唈
唊
唋
唌
唍
唎
唒
唓
唕
唖
唗
唘
唙
唚
唛
唜
唝
唞
唟
唣
唥
唦
唨
唩
唪
唫
唭
唴
唵
唹
唺
唻
唼
唽
唿
啀
啁
啂
啇
啎
啐
啑
啒
啔
啗
啚
啝
啠
啢
啣
啩
啯
啹
啺
啽
啿
喁
喅
喈
喌
喍
喐
喒
喓
喕
喖
喗
喛
喞
喠
喢
喣
喤
喥
喦
喨
喩
喭
喴
喸
喼
喿
嗀
嗁
嗂
嗄
嗈
嗉
嗊
嗋
嗌
嗍
嗏
嗐
嗕
嗘
嗞
嗠
嗥
嗩
嗫
嗭
嗮
嗱
嗴
嗵
嗸
嗹
嗼
嗾
嗿
嘁
嘂
嘃
嘬
嘳
嘵
嘷
嘺
嘼
嘽
嘾
噀
噂
噃
噄
噅
噆
噇
噈
噊
噋
噍
噏
噐
噑
噒
噕
噖
噘
噚
噛
噝
噞
噟
噡
噥
噦
噧
噮
噯
噰
噲
噳
噵
噺
噽
噾
噿
嚁
嚃
嚅
嚆
嚉
嚊
嚋
嚌
嚍
嚑
嚒
嚔
嚖
嚗
嚘
嚙
嚚
嚝
嚞
嚠
嚡
嚢
嚤
嚦
嚧
嚩
嚪
嚫
嚬
嚭
嚯
嚰
嚲
嚳
嚵
嚶
嚸
嚹
嚺
嚻
嚽
嚿
囀
囁
囄
囅
囆
囇
囈
囎
囏
囐
囒
囓
囕
囖
囘
囙
囜
囥
囦
囨
囩
囬
囮
囯
囵
囶
囷
囸
囻
囼
圀
圁
圅
圇
圊
圌
圎
圐
圑
圬
圼
圽
圿
坁
坃
坄
坅
坆
坈
坉
坋
坌
坒
坓
坔
坕
坖
坘
坙
坜
坢
坣
坥
坧
坫
坬
坮
坰
坱
坲
坴
坶
坸
坹
坺
坼
坽
坾
坿
垀
垁
垇
垉
垊
垍
垎
垏
垐
垑
垔
垕
垖
垗
垘
垙
垜
垞
垡
垤
垥
垧
垪
垬
垯
垰
垱
垲
垳
垶
垷
垹
垻
垼
垽
垾
垿
埀
埁
埄
埅
埇
埈
埊
埌
埍
埏
埑
埒
埓
埖
埘
埛
埜
埞
埡
埢
埧
埨
埪
埬
埮
埯
埰
埱
埶
埾
堁
堄
堈
堉
堊
堋
堍
堎
堏
堐
堒
堓
堔
堖
堗
堘
堚
堛
堜
堝
堟
堢
堣
堦
堧
堩
堫
堬
堭
堮
堲
堳
堶
堷
堸
堹
堻
堼
堽
堾
塄
塠
塡
塣
塤
塥
塦
塧
塨
塪
塮
塯
塰
塱
塲
塳
塴
塶
塷
塸
塹
塺
塻
塼
塽
塿
墁
墂
墄
墆
墇
墈
墋
墌
墍
墎
墏
墑
墔
墕
墖
墚
墛
墝
墡
墢
墣
墥
墦
墧
墪
墬
墭
墯
墰
墱
墴
墵
墶
墷
墸
墹
墺
墼
墽
墿
壀
壂
壃
壄
壈
壉
壋
壌
壍
壎
壏
壐
壒
壔
壖
壗
壙
壚
壛
壜
壝
壠
壡
壣
壥
壦
壧
壨
壪
壭
壱
壴
壷
壸
壻
壼
壾
壿
夀
夁
夂
夃
夅
夆
夈
夊
夋
夌
夎
夑
夒
夓
夗
夘
夛
夝
夞
夡
夣
夤
夦
夨
夰
夲
夳
夵
夶
夻
夽
奫
奯
奰
奱
奲
奵
奷
奺
奻
奼
奾
奿
妀
妁
妅
妉
妋
妌
妎
妏
妐
妑
妔
妕
妗
妚
妛
妜
妟
妠
妡
妢
妦
妬
妭
妯
妰
妱
妴
妵
妷
妸
妺
妼
妽
妿
姀
姂
姃
姄
姅
姇
姈
姌
姎
姏
姕
姖
姘
姙
姛
姞
姟
姠
姡
姢
姤
姧
姭
姮
姯
姱
姲
姳
姴
姵
姶
姷
姸
姼
姽
姾
娀
娂
娈
娊
娌
娎
娏
娐
娔
娖
娗
娙
娚
娞
娡
娢
娤
娦
娧
娨
娫
娬
娭
娮
娯
娰
娳
娵
娸
娹
娺
娽
娿
婂
婃
婅
婇
婈
婋
婌
婍
婎
婏
婐
婑
婒
婓
婔
婖
婗
婘
婙
婛
婝
婞
婟
媅
媇
媈
媉
媊
媋
媌
媍
媎
媏
媐
媑
媓
媔
媕
媖
媗
媘
媙
媜
媝
媟
媠
媡
媢
媣
媤
媥
媦
媨
媩
媫
媬
媭
媮
媯
媰
媱
媴
媵
媶
媷
媸
媹
媺
媼
媿
嫄
嫆
嫇
嫈
嫊
嫋
嫍
嫏
嫐
嫒
嫓
嫕
嫗
嫙
嫛
嫜
嫝
嫞
嫟
嫠
嫢
嫥
嫪
嫫
嫬
嫭
嫮
嫯
嫰
嫱
嫴
嫷
嫸
嫹
嫺
嫼
嫾
嫿
嬀
嬁
嬂
嬃
嬄
嬆
嬇
嬈
嬊
嬋
嬍
嬎
嬏
嬑
嬒
嬓
嬔
嬕
嬘
嬙
嬚
嬜
嬝
嬞
嬠
嬡
嬣
嬥
嬦
嬧
嬨
嬩
嬫
嬬
嬭
嬯
嬱
嬲
嬳
嬵
嬶
嬺
嬻
嬼
嬽
嬾
孁
孂
孄
孅
孆
孇
孈
孓
孥
孾
宀
宂
宄
宆
宊
宍
宎
宐
宑
宒
宔
宖
宧
宨
宩
宬
宭
宯
宱
宲
宷
宺
宻
宼
寀
寁
寃
寈
寉
寊
寋
寍
寏
寑
寕
寙
寚
寜
寠
寣
寪
寭
寯
寱
寲
寴
寷
寽
尀
尃
尅
尌
尐
尒
尓
尗
尙
尛
尜
尞
尟
尠
尡
尢
尣
尥
尦
尨
尩
尪
尫
尭
尮
尰
尲
尳
尵
尶
屇
屒
屓
屔
屖
屘
屙
屚
屛
屝
屟
屣
屧
屨
屩
屫
屭
屮
屲
屳
屴
屵
屶
屷
屺
屻
屼
屽
屾
岃
岄
岅
岆
岇
岈
岉
岊
岋
岍
岎
岏
岒
岓
岕
岜
岝
岞
岟
岠
岢
岣
岤
岥
岦
岧
岪
岱d
岵
岽
峓
峔
峕
峖
峚
峛
峜
峝
峞
峟
峠
峢
峣
峧
峩
峫
峬
峮
峱
峲
峳
峵
峷
峸
峹
峺
峼
峾
崄
崅
崈
崉
崊
崋
崌
崍
崏
崐
崓
崕
崘
崚
崜
崝
崞
崟
崠
崡
崢
崣
崦
崨
崪
崫
崬
崯
崰
崱
崲
崳
崶
崷
崸
崹
崺
崻
崼
崾
崿
嵀
嵂
嵃
嵄
嵅
嵆
嵈
嵉
嵎
嵏
嵒
嵓
嵔
嵕
嵖
嵗
嵙
嵚
嵛
嵜
嵝
嵞
嵟
嵠
嵡
嵢
嵣
嵤
嵥
嵧
嵨
嵪
嵫
嵭
嵮
嵰
嵲
嵳
嵵
嵶
嵷
嵸
嵹
嵺
嵻
嵼
嵾
嵿
嶀
嶁
嶃
嶅
嶆
嶈
嶉
嶊
嶌
嶍
嶎
嶐
嶑
嶒
嶓
嶔
嶕
嶖
嶗
嶘
嶚
嶛
嶜
嶝
嶞
嶟
嶠
嶾
嶿
巀
巃
巄
巆
巇
巈
巉
巊
巋
巌
巎
巏
巐
巑
巓
巕
巗
巘
巙
巚
巛
巜
巟
巠
巣
巤
巪
巬
巭
巰
巵
巶
巹
巺
巼
帀
帄
帇
帉
帊
帋
帎
帒
帓
帗
帞
帟
帠
帡
帤
帨
帩
帪
帬
帱
帲
帴
帵
帺
帻
帾
帿
幁
幃
幇
幈
幉
幊
幋
幍
幎
幏
幐
幑
幒
幖
幗
幘
幙
幚
幛
幜
幝
幞
幠
幤
幥
幦
幧
幨
幩
幬
幭
幮
幯
幰
幱
幵
幷
庀
庂
庅
庈
庋
庌
庎
庒
庘
庛
庝
庡
庢
庣
庤
庥
庨
庩
庮
庯
庰
庱
庲
庳
庺
庻
庽
庿
廀
廄
廅
廑
廒
廫
廭
廮
廯
廰
廱
廲
廵
廸
廹
廻
廼
廽
廾
弅
弆
弉
弌
弍
弎
弐
弖
弙
弚
弜
弝
弞
弡
弣
弤
弨
弪
弫
弬
弮
弰
弳
弴
弶
弸
弻
弽
弿
彁
彂
彃
彄
彇
彉
彋
彍
彏
彐
彑
彔
彚
彛
彜
彡
彣
彨
彮
彯
彲
彳
彵
彶
彸
彺
彽
彾
徃
徆
徍
徏
徔
徖
徚
徛
徝
徟
徢
徣
徤
徥
徦
徧
徫
徯
徰
徱
徲
徶
徻
徾
忀
忁
忄
忇
忈
忉
忋
忎
忓
忛
忢
忣
忥
忦
忨
忩
忬
忭
忮
忯
忲
忶
忷
忸
忹
忺
忼
怃
怄
怇
怈
怊
怍
怩
怫
怺
怽
怾
恀
恄
恅
恇
恈
恉
恊
恌
恎
恏
恑
恓
恔
恖
恗
恘
恛
恜
恝
恞
恟
恠
恡
恦
恧
恱
恲
恴
恷
恹
恾
悀
悂
悃
悇
悈
悊
悋
悏
悐
悑
悒
悓
悕
悙
悛
悜
悝
悞
悡
悧
悮
悰
悷
悹
悺
悾
悿
惀
惁
惂
惃
惄
惈
惉
惍
惎
惏
惐
惒
惖
惗
惝
惞
惣
惤
惪
惲
惵
惷
惸
惻
惼
惽
惾
惿
愀
愂
愃
愄
愅
愇
愊
愋
愌
愐
愑
愗
愙
愝
愞
愢
愥
愦
愨
愪
愭
愯
愱
愲
愳
愴
愵
愶
愸
愹
愺
愻
愼
愽
愾
慀
慁
慂
慃
慆
慊
慝
慯
慱
慲
慴
慸
慺
慻
慼
慽
慿
憀
憁
憃
憄
憅
憆
憇
憈
憉
憌
憍
憏
憒
憓
憗
憙
憛
憜
憝
憞
憟
憠
憡
憢
憣
憥
憦
憯
憰
憱
憳
憴
憵
憷
憸
憹
憺
憻
憼
憽
憿
懀
懁
懃
懄
懅
懆
懌
懎
懏
懐
懓
懔
懖
懗
懘
懙
懚
懛
懝
懞
懟
懡
懣
懤
懥
懧
懩
懪
懫
懬
懭
懮
懯
懱
懳
懴
懹
懻
戁
戃
戄
戅
戆
戉
戋
戓
戔
戙
戜
戝
戞
戣
戤
戥
戧
戨
戩
戫
戭
戵
戹
戺
戼
戽
扂
扄
扅
扆
扊
扌
扏
抂
抃
抆
抈
抋
抌
抍
抎
抏
抐
抔
抝
抣
抦
抧
抩
抪
抭
抮
抯
抰
抲
抴
抶
抷
抸
抺
抻
抾
拀
拑
拕
拝
拞
拠
拤
拪
拫
拰
拲
拶
拸
拹
拻
挀
挃
挄
挅
挆
挊
挋
挍
挏
挒
挓
挔
挗
挘
挢
挧
挬
挭
挰
挱
挴
挵
挶
挷
挸
挻
挼
挿
捀
捁
捃
捄
捈
捊
捑
捓
捘
捙
捚
捛
捜
捠
捤
捦
捪
捫
捬
捰
捳
捴
捵
捸
捹
捼
捾
捿
掁
掄
掅
掆
掊
掍
掎
掑
掓
掔
掕
掗
掚
掝
掦
掫
掭
掮
掯
掵
掶
掹
掻
掼
掽
掿
揁
揎
揞
揠
揫
揬
揯
揰
揲
揷
揺
揻
揼
揾
揿
搃
搄
搆
搇
搈
搉
搊
搋
搌
搎
搑
搒
搕
搘
搚
搛
搝
搟
搠
搢
搣
搤
搥
搦
搧
搫
搮
搯
搴
搷
搸
搹
搻
搼
搾
搿
摂
摃
摅
摉
摌
摍
摏
摐
摑
摓
摕
摖
摚
摛
摜
摝
摠
摣
摤
摥
摦
摫
摬
摮
摲
摴
摵
摶
摼
摽
摾
摿
撀
撁
撄
撆
撉
撊
撋
撌
撎
撔
撖
撗
撘
撙
撛
撟
撠
撡
撣
撦
撧
撨
撪
撯
撳
撴
撶
撹
撺
撽
撾
擃
擆
擈
擉
擌
擐
擑
擓
擗
擙
擛
擤
擻
攁
攂
攃
攄
攅
攆
攇
攈
攉
攊
攋
攌
攍
攎
攐
攑
攓
攕
攖
攗
攚
攛
攟
攡
攧
攨
攭
攮
攰
攱
攲
攳
攴
攵
攷
攺
攽
敀
敁
敂
敆
敇
敉
敐
敒
敔
敚
敜
敟
敠
敡
敤
敨
敫
敮
敯
敳
敹
敼
敽
敾
敿
斅
斆
斈
斊
斏
斒
斔
斕
斖
斘
斚
斞
斠
斣
斨
斪
斮
斱
斲
斴
斶
斸
斻
斾
旀
旂
旈
旉
旊
旍
旐
旑
旓
旔
旕
旘
旙
旚
旛
旜
旝
旞
旟
旡
旣
旪
旫
旯
旰
昃
昜
昝
昞
昡
昢
昣
昤
昦
昩
昪
昫
昬
昮
昰
昲
昷
昸
昹
昻
昽
昿
晀
晄
晅
晆
晇
晈
晊
晍
晎
晐
晑
晘
晙
晛
晜
晠
晡
晣
晥
晧
晪
晫
晬
晭
晱
晲
晳
晸
晹
晻
晼
晽
晿
暁
暃
暅
暆
暊
暍
暎
暏
暒
暓
暔
暕
暘
暙
暚
暛
暜
暞
暟
暡
暣
暤
暥
暦
暩
暪
暬
暭
暯
暰
暲
暳
暵
暶
暷
暺
暻
暼
暽
暾
曀
曁
曂
曃
曅
曈
曊
曋
曌
曍
曎
曏
曐
曑
曒
曓
曔
曕
曗
曘
曚
曛
曞
曟
曡
曢
曣
曤
曥
曧
曪
曫
曭
曮
曯
曱
曵
曶
曺
曻
曽
朁
朂
朄
朊
朳
朶
朸
朹
朻
朼
朾
朿
杁
杄
杇
杊
杋
杌
杍
杔
杗
杘
杙
杚
杛
杝
杢
杣
杤
杦
杧
杩
杫
杬
杮
杴
杶
杸
杹
杺
杻
杽
枀
枃
枅
枆
枊
枌
枍
枎
枏
枑
枒
枔
枖
枘
枙
枛
枟
枠
枡
枦
枨
枬
枮
枲
枴
枵
枹
枺
枼
枽
枾
枿
柀
柁
柃
柅
柆
柇
柈
柉
柊
柋
柌
柕
柗
柙
柛
柝
柟
柡
柦
柧
柫
柭
柮
柲
柶
柷
柸
柹
柼
柾
栂
栆
栊
栍
栐
栔
栕
栘
栙
栚
栛
栞
栟
栠
栢
栣
栤
栥
栦
栨
栫
栬
栭
栮
栰
栳
栴
栵
栶
栻
栿
桄
桇
桊
桍
桏
桒
桖
桗
桘
桙
桛
桤
桴
梃
梉
梊
梌
梍
梐
梑
梒
梔
梕
梖
梘
梙
梚
梛
梜
梞
梠
梡
梣
梤
梥
梩
梪
梫
梬
梮
梱
梲
梴
梷
梸
梹
梺
梻
梼
梽
梾
梿
棁
棃
棅
棆
棈
棌
棎
棐
棑
棓
棔
棖
棛
棜
棝
棞
棡
棢
棤
棥
棦
棨
棩
棪
棫
棭
棳
棶
棸
棻
棼
棾
椀
椂
椃
椆
椇
椈
椏
椐
椑
椓
椔
椕
椖
椗
椘
椙
椚
椛
椝
椞
椟
椠
椡
椢
椣
椥
椦
椧
椨
椩
椫
椬
椮
椱
椳
椶
椸
椺
椻
椼
椾
楀
楁
楃
楄
楅
楆
楈
楉
楋
楌
楍
楏
楐
楑
楒
楕
楗
楘
楙
楜
楟
楡
楦
榀
榇
榌
榍
榎
榏
榑
榒
榓
榗
榙
榚
榝
榞
榟
榠
榡
榢
榣
榤
榥
榦
榩
榪
榬
榯
榰
榲
榳
榵
榶
榸
榹
榺
榼
榽
榾
榿
槀
槂
槄
槆
槈
槉
槒
槔
槖
槗
槙
槚
槜
槝
槞
槠
槡
槢
槣
槥
槦
槧
槨
槩
槪
槬
槰
槱
槴
槵
槶
槸
槹
槺
樀
樃
樄
樅
樇
樈
樉
樋
樌
樍
樎
樐
樒
樕
樖
樘
樚
樛
樜
樝
樠
樤
樥
樦
樬
樭
樮
樰
樲
樳
樴
樶
樻
樼
樿
橀
橁
橂
橅
橈
橉
橊
橌
橍
橎
橑
橒
橓
橕
橗
橜
橥
橻
橽
橿
檂
檃
檅
檆
檇
檈
檉
檊
檋
檌
檍
檏
檑
檒
檓
檕
檖
檘
檙
檚
檛
檝
檞
檟
檠
檡
檣
檤
檥
檦
檧
檨
檪
檫
檭
檮
檰
檱
檲
檵
檶
檹
檺
檾
檿
櫀
櫁
櫂
櫄
櫅
櫆
櫇
櫈
櫉
櫊
櫋
櫌
櫍
櫏
櫐
櫒
櫓
櫔
櫕
櫖
櫘
櫙
櫜
櫝
櫞
櫟
櫠
櫡
櫢
櫣
櫤
櫦
櫧
櫨
櫩
櫪
櫬
櫮
櫯
櫱
櫲
櫳
櫴
櫵
櫶
櫷
櫼
櫽
櫾
櫿
欀
欁
欂
欃
欅
欆
欇
欈
欉
欋
欌
欎
欏
欑
欔
欕
欗
欘
欚
欛
欜
欝
欟
欥
欨
欩
欫
欬
欭
欮
欯
欷
歃
歔
歕
歖
歘
歚
歜
歝
歞
歟
歠
歨
歫
歬
歭
歮
歰
歱
歵
歶
歺
歽
歾
殀
殂
殅
殈
殌
殍
殎
殏
殐
殔
殕
殛
殝
殟
殠
殢
殣
殥
殦
殧
殨
殩
殪
殫
殬
殮
殰
殱
殳
殶
殹
殻
殾
毇
毈
毊
毑
毖
毚
毜
毝
毞
毟
毠
毢
毣
毤
毦
毨
毩
毪
毬
毭
毮
毰
毱
毲
毳
毴
毵
毶
毷
毸
毹
毺
毾
毿
氁
氃
氄
氅
氆
氇
氉
氊
氋
氌
氍
氎
氒
氕
氜
氝
氞
氠
氥
氬
氭
氱
氶
氺
氻
汄
汅
汈
汌
汍
汏
汑
汔
汖
汘
沎
沑
沗
沘
沚
沜
沝
沞
沠
沨
沬
沯
沰
沲
沴
沵
沶
沷
沺
泀
泃
泆
泇
泈
泋
泍
泎
泐
泑
泖
泘
泙
泝
泟
泤
泦
泩
泭
泲
泴
泶
泹
泿
洀
洂
洃
洅
洆
洇
洈
洉
洊
洍
洏
洐
洔
洕
洖
洚
洜
洟
洠
洢
洣
洤
洦
洨
洫
洭
洯
洰
洳
洴
洷
洿
浀
浂
浈
浉
浐
浖
浗
浘
浛
浝
浞
浡
浢
浤
浨
浫
浭
浰
浳
浵
浶
浹
浺
浻
浼
浽
浾
浿
涀
涁
涃
涄
涆
涊
涋
涍
涏
涐
涖
涗
涘
涚
涜
涥
涫
涬
涭
涰
涱
涳
涴
涷
涹
涺
涻
涽
涾
淁
淂
淃
淈
淍
淸
淽
淾
淿
渀
渁
渂
渃
渄
渆
渇
渏
渒
渓
渕
渘
渞
渟
渢
渧
渨
渪
渫
渮
渱
渳
渵
渶
渷
渻
渼
渽
渿
湀
湁
湂
湅
湆
湇
湈
湉
湋
湌
湐
湒
湓
湔
湕
湗
湙
湚
湞
湠
湡
湢
湣
湤
湥
湦
湨
湩
湭
湰
湱
湲
湴
湵
湶
湷
湸
湹
湺
湻
湼
湽
溁
溂
溈
溊
溋
溌
溍
溑
溒
溔
溕
溗
溘
溙
溛
溞
溡
溣
溤
溨
溩
溬
溭
溰
溲
溵
溷
溸
溻
溽
溾
溿
滀
滆
滈
滉
滍
滎
滐
滒
滖
滗
滛
滠
滣
滧
滪
滫
滭
滮
滰
漑
漒
漖
漗
漘
漙
漚
漛
漜
漝
漞
漟
漡
漤
漥
漦
漧
漨
漭
漮
漰
漴
漵
漶
漹
漺
漻
漽
潂
潃
潄
潉
潊
潌
潒
潓
潕
潖
潗
潠
潡
潣
潥
潩
潫
潯
潱
潲
潳
潶
潹
潻
潽
潾
潿
澂
澃
澅
澇
澉
澋
澌
澏
澐
澓
澔
澕
澖
澘
澙
澚
澛
澝
澞
澟
澢
澣
澥
澩
澪
澫
澬
澭
澮
澯
澰
澲
澴
澵
澷
澸
澺
澻
澼
澽
澾
澿
濄
濅
濇
濈
濋
濌
濍
濏
濐
濓
濖
濗
濙
濚
濝
濣
濥
濦
瀃
瀄
瀇
瀈
瀊
瀌
瀍
瀎
瀐
瀒
瀓
瀔
瀖
瀗
瀙
瀜
瀠
瀡
瀢
瀣
瀤
瀥
瀦
瀩
瀪
瀫
瀭
瀮
瀯
瀱
瀲
瀴
瀵
瀶
瀷
瀸
瀹
瀺
瀻
瀼
瀽
瀿
灀
灁
灃
灄
灅
灆
灇
灈
灉
灊
灋
灍
灎
灐
灒
灓
灔
灕
灖
灗
灙
灚
灛
灜
灟
灠
灡
灢
灤
灦
灨
灪
灮
灱
灲
灳
灴
灷
灹
灺
灻
炂
炃
炄
炇
炈
炋
炌
炍
炏
炐
炑
炓
炗
炚
炛
炞
炟
炠
炡
炢
炣
炤
炥
炦
炧
炨
炩
炱
炲
炴
炵
炶
炻
炾
炿
烀
烅
烆
烇
烉
烋
烌
烍
烎
烐
烑
烒
烓
烔
烕
烗
烚
烜
焆
焇
焈
焋
焌
焍
焎
焏
焐
焑
焒
焔
焛
焝
焟
焠
焢
焣
焤
焧
焨
焩
焪
焫
焬
焭
焮
焲
焳
焴
焵
焷
焹
焺
焻
焽
焾
焿
煀
煁
煂
煃
煄
煈
煋
煍
煏
煐
煑
煓
煗
煘
煚
煛
煝
煟
煠
煡
煢
煪
煫
煬
煭
煯
煰
煱
煳
煵
煶
煷
煹
煺
煻
煼
煿
熀
熁
熂
熃
熆
熈
熉
熋
熌
熍
熎
熐
熓
熕
熖
熗
熘
熚
熛
熜
熝
熞
熡
熣
熤
熦
熧
熩
熪
熫
熭
熮
熰
熳
熴
熷
熸
熺
熻
熼
熽
燅
燇
燌
燏
燐
燑
燓
燠
燵
燶
燷
燺
燽
燾
爀
爁
爂
爃
爄
爅
爇
爈
爊
爋
爌
爎
爏
爑
爒
爓
爔
爕
爖
爗
爘
爙
爚
爜
爝
爞
爟
爠
爡
爢
爣
爤
爥
爦
爧
爩
爫
爮
爳
爴
爼
牁
牃
牄
牅
牉
牊
牋
牎
牏
牐
牓
牔
牘
牚
牜
牣
牤
牥
牨
牪
牬
牭
牮
牱
牳
牶
牷
牸
牻
牼
牾
牿
犂
犃
犅
犇
犈
犉
犋
犌
犎
犏
犐
犑
犓
犔
犖
犗
犘
犙
犚
犛
犜
犝
犞
犠
犡
犣
犤
犦
犨
犩
犪
犫
犭
犰
犱
犲
犳
犴
犵
犼
犽
犾
犿
狁
狃
狅
狆
狇
狉
狊
狑
狔
狕
狖
狘
狚
狛
狜
狨
狯
狲
狳
狴
狺
狻
猃
猍
猏
猐
猑
猔
猘
猟
猠
猡
猢
猣
猤
猦
猧
猨
猯
猰
猱
猲
猳
猵
猸
猹
猺
猻
猼
猽
獀
獁
獂
獃
獆
獇
獈
獉
獊
獋
獌
獍
獑
獓
獔
獕
獘
獙
獚
獛
獝
獞
獟
獢
獤
獥
獧
獩
獪
獫
獯
玎
玔
玗
玘
玙
玚
玜
玝
玞
玡
玢
玣
玤
玧
玨
玪
玬
玭
玱
玴
玵
玶
玸
玹
玼
玽
玾
玿
珁
珃
珄
珇
珋
珌
珎
珒
珓
珔
珕
珖
珗
珘
珚
珛
珜
珝
珟
珡
珤
珦
珧
珨
珫
珬
珯
珱
珳
珴
珶
珷
珸
琜
琝
琞
琠
琡
琣
琤
琧
琩
琫
琭
琱
琷
琸
琹
琻
琽
琾
琿
瑂
瑃
瑅
瑆
瑇
瑈
瑉
瑊
瑌
瑍
瑎
瑏
瑐
瑑
瑒
瑓
瑔
瑖
瑘
瑝
瑡
瑢
瑥
瑦
瑧
瑨
瑫
瑬
瑮
瑳
瑴
瑵
瑹
瑺
瑻
璡
璣
璤
璥
璦
璪
璫
璬
璭
璮
璯
璱
璲
璳
璴
璵
璶
璷
璸
璹
璺
璻
璼
璾
瓀
瓁
瓂
瓃
瓄
瓅
瓆
瓇
瓉
瓋
瓌
瓍
瓎
瓐
瓑
瓔
瓖
瓙
瓚
瓝
瓞
瓡
瓥
瓧
瓩
瓪
瓫
瓬
瓭
瓰
瓱
瓲
瓳
甍
甏
甓
甗
甛
甝
甠
甡
甤
甧
甪
甮
甴
甶
甹
甼
甽
甿
畁
畂
畃
畄
畆
畇
畉
畊
畍
畎
畐
畒
畓
畕
畖
畗
畘
畚
畛
畞
畟
畡
畤
畧
畩
畭
畮
畯
畱
畵
畷
畺
畻
畼
畽
畾
疀
疁
疂
疄
疅
疈
疋
疒
疰
痃
痄
痆
痌
痎
痏
痐
痓
痗
痚
痜
痝
痟
痡
痥
痦
痩
痬
痮
痯
痲
痳
痵
痶
痷
痸
痻
痽
痾
瘃
瘄
瘅
瘆
瘇
瘉
瘊
瘌
瘎
瘏
瘐
瘑
瘒
瘔
瘖
瘚
瘛
瘜
瘝
瘞
瘣
瘥
瘨
瘬
瘭
瘮
瘯
瘱
瘲
瘳
瘵
瘶
瘷
瘹
瘻
瘼
瘽
癀
癁
癃
癄
癅
癍
癧
癨
癩
癪
癭
癯
癰
癳
癴
癵
癶
癷
癹
癿
皀
皁
皃
皅
皉
皊
皌
皍
皏
皐
皒
皔
皕
皗
皘
皝
皞
皟
皠
皡
皢
皣
皤
皥
皦
皧
皨
皩
皫
皬
皭
皯
皲
皳
皵
皶
皷
皸
皹
皻
皼
皽
皾
盀
盁
盄
盵
盶
盷
盺
盻
盽
盿
眀
眂
眃
眄
眅
眆
眊
眍
眎
眏
眐
眑
眒
眓
眔
眕
眖
眗
眘
眚
眛
眝
眡
眢
眣
眤
眥
眧
眫
眬
眭
眮
眰
眱
眲
眳
眵
眹
眻
眽
眿
睂
睃
睅
睆
睈
睉
睊
睋
睌
睍
睎
睒
睓
睕
睖
睗
睘
睙
睚
睝
瞀
瞈
瞉
瞊
瞍
瞏
瞐
瞔
瞕
瞖
瞗
瞘
瞙
瞚
瞛
瞜
瞝
瞡
瞢
瞣
瞤
瞦
瞨
瞫
瞮
瞯
瞱
瞲
瞴
瞵
瞶
瞷
瞸
瞹
瞺
瞾
矀
矁
矂
矄
矅
矈
矉
矊
矋
矌
矏
矐
矑
矔
矕
矖
矘
矙
矞
矟
矠
矡
矤
矦
矧
矬
砉
砑
砘
砙
砛
砞
砟
砡
砤
砨
砩
砪
砫
砮
砯
砱
砳
砵
砶
砹
砽
砿
硁
硂
硃
硄
硆
硇
硈
硉
硊
硋
硌
硎
硏
硑
硓
硔
硗
硘
硚
硛
硟
硠
硡
硢
硣
硤
硧
硨
硩
硪
硭
硰
硱
硲
硳
硴
硵
硷
硸
硹
硺
硻
硾
硿
碀
碃
碄
碜
碡
碥
碵
碶
碷
碸
碹
碽
碿
磀
磂
磃
磄
磆
磇
磉
磌
磍
磎
磏
磑
磒
磓
磖
磗
磘
磙
磛
磜
磝
磞
磟
磠
磢
磣
磦
磧
磪
磫
磭
磮
磰
磱
磳
磵
磶
磸
磹
磼
磽
磿
礀
礂
礃
礅
礆
礇
礈
礌
礍
礓
礞
礤
礬
礭
礯
礰
礱
礲
礳
礵
礶
礷
礸
礹
礻
礿
祃
祄
祅
祆
祊
祋
祌
祍
祏
祑
祒
祓
祔
祘
祙
祡
祣
祤
祦
祧
祩
祪
祫
祬
祮
祰
祲
祳
祴
祵
祶
祹
祻
祼
祽
祾
禂
禃
禇
禈
禉
禋
禌
禐
禑
禒
禚
禰
禲
禴
禵
禶
禷
禸
禼
秂
秄
秅
秇
秈
秊
秌
秎
秏
秐
秓
秔
秖
秗
秙
秚
秛
秜
秝
秞
秠
秡
秢
秥
秨
秪
秬
秮
秱
秲
秳
秵
秶
秷
秹
秺
秼
稁
稂
稆
稇
稈
稉
稊
稌
稏
稐
稑
稒
稓
稕
稖
稘
稙
稛
稝
穃
穄
穅
穇
穈
穉
穊
穋
穏
穐
穒
穓
穔
穕
穖
穘
穙
穚
穛
穜
穝
穞
穟
穠
穡
穣
穤
穦
穧
穬
穮
穯
穱
穲
穵
穸
穼
穽
穾
窀
窂
窆
窇
窉
窊
窎
窏
窔
窙
窚
窛
窞
窡
窢
窣
窬
窭
窳
竆
竈
竉
竌
竍
竎
竏
竐
竒
竓
竔
竕
竗
竘
竚
竛
竝
竡
竢
竤
竨
竩
竪
竫
竬
竮
竰
竱
竲
竳
竴
竵
竷
竸
竻
竼
竾
笀
笁
笂
笇
笉
笊
笌
笎
笐
笕
笖
笗
笘
笜
笝
笟
笡
笢
笣
笤
笧
笩
笪
笫
笭
笮
笯
笱
笸
笾
筅
筇
筘
筟
筡
筢
筣
筥
筦
筧
筨
筩
筪
筫
筬
筭
筯
筰
筳
筴
筶
筸
筺
筻
筼
筽
筿
箁
箂
箃
箄
箅
箆
箈
箉
箊
箌
箎
箑
箖
箙
箚
箛
箟
箠
箢
箣
箤
箥
箦
箪
箮
箯
箰
箲
箳
箶
箷
箹
箺
箻
箼
箽
箿
篂
篃
篅
篚
篥
篭
篰
篲
篳
篴
篵
篶
篸
篹
篺
篻
篼
篽
篿
簀
簁
簂
簃
簄
簅
簆
簈
簉
簊
簎
簏
簐
簑
簒
簓
簔
簕
簖
簗
簘
簙
簚
簛
簜
簝
簞
簠
簢
簣
簥
簩
簬
簭
簮
簯
簰
簱
簲
簳
簴
簵
簶
簺
簻
簼
籂
籡
籣
籥
籦
籧
籨
籩
籪
籫
籭
籯
籰
籱
籵
籶
籷
籸
籹
籺
籾
籿
粀
粁
粂
粃
粅
粆
粇
粈
粊
粋
粌
粍
粎
粏
粐
粓
粔
粖
粙
粚
粛
粝
粞
粠
粡
粢
粦
粨
粩
粫
粭
粯
粰
粴
粶
粷
粸
粺
粻
糁
糇
糈
糌
糨
糩
糪
糫
糭
糮
糱
糲
糴
糵
糶
糷
糹
糺
糼
糽
糿
紁
紃
紆
紇
紈
紌
紎
紏
紑
紒
紞
紣
紤
紥
紦
紩
紪
紬
紭
紱
紲
紷
絒
絖
絗
絘
絙
絚
絛
絜
絝
絟
絠
絣
絤
絥
絧
絩
絪
絫
絬
絯
絴
絷
絸
絺
絼
絽
絾
絿
綀
綂
綃
綄
綇
綈
綉
綊
綋
綌
綍
綐
綒
綔
綕
綖
綗
綘
綮
綶
綷
綹
綼
緀
緁
緂
緃
緄
緅
緆
緇
緈
緉
緌
緍
緎
緐
緓
緔
緕
緖
緗
緙
緛
緟
緡
緥
緦
緧
緫
緭
緮
緱
緲
緳
緵
緶
緷
緸
緺
縖
縘
縜
縞
縟
縠
縡
縢
縤
縥
縧
縨
縩
縪
縬
縭
縯
縰
縲
縵
縶
縸
縹
縺
縼
繀
繂
繅
繉
繊
繍
繎
繏
繐
繑
繒
繓
繖
繗
繘
繜
繝
繺
繻
繾
繿
纀
纁
纃
纄
纅
纆
纈
纉
纊
纋
纎
纐
纑
纒
纕
纗
纘
纙
纛
纝
纞
纩
纴
纻
纼
绁
绋
绐
绖
绗
绠
绤
绨
绬
绱
绲
绹
缃
缊
缋
缌
缏
缐
缒
缞
缡
缧
缲
缳
缷
缹
缻
缼
缾
缿
罀
罁
罃
罆
罇
罉
罊
罋
罒
罓
罖
罟
罨
罱
罾
羀
羂
羃
羄
羆
羇
羉
羋
羍
羏
羐
羑
羒
羓
羕
羖
羗
羘
羙
羛
羜
羝
羠
羢
羦
羪
羫
羬
羭
羮
羱
羳
羴
羵
羶
羷
羺
羻
羼
羾
翀
翂
翃
翄
翇
翉
翋
翐
翑
翓
翖
翗
翙
翜
翝
翞
翣
翤
耓
耔
耖
耚
耝
耞
耟
耠
耡
耢
耣
耤
耥
耧
耩
耪
耬
耭
耮
耯
耰
耱
耲
耴
耵
耹
耺
耼
耾
聀
聁
聄
聅
聇
聈
聉
聍
聎
聏
聐
聑
聕
聗
聙
聛
聝
聟
聠
聡
聢
聣
聤
聥
聦
聧
聨
聫
聬
聭
聮
聱
聵
聸
聹
聺
肀
肜
肫
肭
肷
肹
肻
胂
胅
胈
胉
胊
胋
胏
胐
胑
胒
胓
胔
胕
胗
胘
胙
胟
胠
胢
胣
胦
胩
胬
胮
胲
胵
胷
胹
胻
胾
胿
脀
脁
脃
脄
脋
脌
脎
脒
脔
脗
脙
脜
脝
脞
脠
脡
脢
脤
脥
脧
脬
脭
脰
脴
脵
脶
脷
脻
脼
脽
脿
腀
腙
腚
腬
腯
腲
腵
腶
腷
腽
膂
膃
膄
膅
膆
膇
膉
膋
膌
膍
膎
膐
膒
膓
膔
膕
膖
膗
膙
膞
膟
膡
膢
膣
膤
膥
膧
膪
膫
膬
膮
膯
膰
膱
膲
膵
膷
膸
膹
膼
臁
臄
臅
臇
臈
臋
臌
臎
臏
臐
臔
臶
臹
臽
臿
舁
舃
舄
舋
舏
舑
舓
舕
舙
舚
舝
舠
舡
舢
舣
舤
舥
舦
舧
舨
舩
舭
舮
舯
舲
舳
舴
舻
舼
舽
舿
艀
艁
艂
艃
艄
艅
艆
艊
艌
艍
艎
艐
艑
艒
艓
艔
艕
艖
艗
艚
艛
艜
艝
艟
艠
艡
艤
艥
艨
艩
艴
艽
艿
芄
芏
芑
芘
芟
芠
芢
芣
芤
芰
芲
芴
芵
芶
芺
芼
芿
苀
苂
苃
苅
苆
苈
苉
苊
苐
苖
苘
苙
苚
苝
苠
苢
苤
苧
苨
苩
苪
苬
苭
苮
苰
苲
苳
苵
苶
苸
苺
苽
苿
茇
茈
茊
茋
茍
茑
茓
茘
茙
茚
茛
茝
茞
茟
茠
茡
茢
茣
茤
茦
茩
茪
茰
茳
茺
茻
茽
茾
荛
荜
荩
荬
荭
荮
荾
荿
莀
莁
莂
莃
莄
莇
莈
莋
莌
莍
莏
莐
莑
莔
莕
莗
莙
莚
莛
莝
莟
莡
莣
莤
莥
莦
莩
莭
莮
莯
莰
莶
莸
莻
莾
菂
菃
菄
菉
菋
菎
菐
菑
菒
菔
菕
菗
菙
菚
菛
菝
菞
菢
菣
菤
菥
菦
菧
菮
菹
萆
萏
萑
萚
萛
萞
萟
萠
萢
萣
萪
萫
萭
萮
萯
萰
萲
萳
萴
萶
萷
萹
萺
萻
萾
萿
葀
葁
葂
葃
葄
葅
葇
葈
葊
葋
葌
葍
葎
葏
葐
葑
葒
葓
葔
葕
葘
葙
葜
葞
葟
葠
葢
葤
葧
葨
葪
葮
葲
葴
葸
葹
葻
葼
葽
蒇
蒈
蒉
蒎
蒗
蒤
蒥
蒦
蒧
蒩
蒪
蒫
蒬
蒭
蒮
蒰
蒱
蒳
蒵
蒶
蒷
蒾
蓀
蓂
蓃
蓅
蓈
蓌
蓎
蓏
蓐
蓒
蓕
蓗
蓘
蓙
蓚
蓛
蓜
蓞
蓠
蓡
蓢
蓤
蓨
蓩
蓪
蓫
蓭
蓯
蓰
蓱
蓳
蓴
蓵
蓶
蓷
蓸
蓹
蓺
蓻
蓽
蓾
蔀
蔁
蔂
蔌
蔟
蔦
蔧
蔨
蔩
蔪
蔮
蔯
蔰
蔱
蔲
蔳
蔴
蔶
蔹
蔾
蔿
蕀
蕂
蕄
蕅
蕆
蕇
蕋
蕌
蕍
蕏
蕐
蕑
蕒
蕔
蕕
蕗
蕘
蕚
蕛
蕜
蕞
蕠
蕢
蕣
蕥
蕦
蕧
蕫
蕬
蕮
蕯
蕱
蕳
蕵
蕶
蕷
蕸
蕹
蕺
蕼
蕽
薀
薁
薂
薣
薧
薫
薭
薱
薲
薳
薴
薵
薷
薸
薺
薻
薼
薽
薿
藀
藂
藃
藄
藅
藆
藇
藈
藊
藋
藌
藎
藑
藒
藔
藖
藗
藘
藙
藚
藛
藞
藟
藠
藢
藣
藦
藧
藨
藪
藫
藬
藭
藮
藯
藰
藶
藷
蘙
蘛
蘜
蘝
蘞
蘟
蘠
蘡
蘢
蘣
蘤
蘥
蘦
蘨
蘩
蘪
蘫
蘬
蘮
蘯
蘰
蘱
蘲
蘳
蘴
蘵
蘶
蘷
蘹
蘺
蘻
蘽
蘾
虀
虁
虂
虃
虄
虅
虆
虇
虈
虉
虊
虋
虌
虍
虓
虖
虗
虘
虙
虝
虠
虡
虣
虤
虥
虦
虨
虩
虪
虮
虼
虿
蚋
蚍
蚚
蚛
蚞
蚟
蚠
蚡
蚢
蚥
蚦
蚨
蚫
蚭
蚮
蚰
蚲
蚷
蚸
蚹
蚺
蚻
蚼
蚽
蚾
蚿
蛁
蛂
蛃
蛅
蛈
蛌
蛍
蛑
蛒
蛓
蛗
蛘
蛚
蛜
蛝
蛞
蛠
蛢
蛥
蛦
蛧
蛨
蛩
蛪
蛫
蛬
蛯
蛱
蛲
蛴
蛵
蛶
蛷
蛸
蛺
蛼
蛽
蛿
蜁
蜄
蜅
蜋
蜌
蜎
蜏
蜐
蜑
蜔
蜖
蜙
蜞
蜣
蜩
蜮
蜾
蝄
蝅
蝆
蝋
蝍
蝏
蝐
蝑
蝒
蝓
蝔
蝖
蝘
蝚
蝛
蝜
蝝
蝞
蝡
蝢
蝤
蝥
蝧
蝩
蝪
蝫
蝬
蝭
蝯
蝱
蝲
蝳
蝵
蝷
蝻
蝾
蝿
螀
螁
螄
螆
螉
螊
螋
螌
螏
螐
螑
螒
螓
螖
螗
螙
螚
螛
螜
螝
螠
螤
螥
螬
螵
螽
蟊
蟍
蟏
蟐
蟓
蟔
蟕
蟖
蟗
蟘
蟙
蟚
蟛
蟜
蟝
蟟
蟡
蟢
蟣
蟤
蟥
蟦
蟧
蟨
蟩
蟪
蟭
蟮
蟯
蟰
蟱
蟳
蟴
蟵
蟶
蟷
蟸
蟼
蟽
蟿
蠀
蠁
蠂
蠃
蠄
蠆
蠇
蠈
蠉
蠊
蠋
蠌
蠎
蠏
蠐
蠑
蠒
蠓
蠖
蠗
蠘
蠙
蠚
蠜
蠝
蠞
蠠
蠤
蠼
衃
衈
衉
衊
衋
衎
衏
衐
衑
衒
衕
衖
衘
衚
衜
衟
衠
衤
衦
衧
衪
衭
衯
衱
衳
衴
衵
衶
衸
衺
衻
衼
袀
袃
袇
袉
袊
袎
袏
袐
袑
袕
袗
袘
袙
袛
袝
袟
袠
袡
袣
袥
袦
袧
袨
袩
袬
袷
袼
裉
裎
裑
裖
裗
裚
裛
裞
裠
裢
裣
裥
裦
裧
裩
裪
裫
裬
裭
裮
裯
裰
裲
裵
裶
裷
裺
裻
裼
裿
褀
褁
褃
褄
褅
褈
褉
褊
褋
褍
褎
褏
褕
褖
褗
褙
褜
褝
褞
褟
褠
褡
褢
褣
褤
褦
褧
褩
褬
褭
褮
褯
褰
褱
褳
褵
褷
襕
襖
襗
襘
襙
襚
襛
襜
襝
襡
襢
襣
襤
襥
襧
襨
襩
襫
襭
襮
襰
襱
襳
襴
襵
襶
襷
襹
襺
襻
襼
襽
襾
覀
覄
覅
覉
覊
覍
覑
覒
覕
覗
覘
覙
覛
覝
覞
覟
覠
覡
覢
覾
覿
觃
觋
觌
觍
觏
觓
觔
觖
觗
觘
觙
觛
觜
觝
觟
觠
觡
觢
觤
觨
觩
觪
觫
觬
觮
觯
觰
觱
觲
觳
觴
觵
觶
觷
觹
觺
觻
觼
觽
觾
觿
訃
訄
訅
訆
訉
訋
訌
訏
訐
訒
訔
訙
訚
訜
訞
訹
訽
訿
詀
詁
詂
詃
詄
詅
詇
詉
詊
詋
詌
詍
詎
詏
詑
詒
詓
詖
詗
詘
詙
詚
詜
詝
詟
詤
詥
詧
詨
詪
詯
詴
詵
詶
詸
詺
詻
詽
詿
誀
誁
誟
誢
誧
誩
誫
誮
誯
誱
誳
誴
誵
誶
誷
誸
誺
誻
誽
誾
諀
諁
諂
諃
諅
諆
諈
諉
諊
諌
諍
諐
諑
諓
諔
諕
諘
諚
諛
諞
諠
諢
諤
諿
謃
謅
謆
謈
謉
謋
謌
謍
謏
謑
謒
謓
謕
謖
謘
謚
謜
謞
謟
謡
謢
謦
謧
謪
謫
謭
謮
謰
謱
謲
謳
謴
謵
謶
謷
謸
謺
謼
謽
謿
譀
譃
譄
譅
譆
譡
譢
譤
譥
譧
譨
譩
譪
譫
譭
譮
譱
譳
譵
譶
譸
譹
譺
譻
譼
譾
譿
讁
讂
讃
讄
讆
讇
讈
讌
讍
讎
讏
讑
讒
讔
讕
讗
讙
讜
讝
讟
讠
讬
讱
讻
诇
诌
诎
诐
诓
诖
诹
诼
谂
谇
谉
谖
谝
谞
谫
谰
谳
谸
豙
豛
豜
豝
豞
豟
豠
豣
豤
豥
豦
豨
豩
豭
豮
豯
豰
豱
豲
豴
豵
豶
豷
豻
豼
豽
豾
豿
貀
貁
貃
貄
貆
貊
貋
貎
貐
貑
貒
貕
貖
貗
貙
貚
貛
貜
貣
貥
貦
貭
貮
賋
賌
賎
賏
賐
賒
賔
賕
賖
賗
賘
賙
賚
賛
賝
賟
賥
賧
賨
賩
賫
賯
賰
賱
賲
賳
賶
賷
賹
賻
賾
賿
贀
贁
贂
贃
贄
贆
贉
贋
贌
贎
贳
赆
赇
赕
赙
赱
赲
赸
赹
赻
赼
赽
赾
赿
趀
趂
趃
趄
趆
趇
趈
趉
趌
趍
趎
趏
趐
趑
趒
趓
趔
趖
趗
趘
趚
趛
趜
趝
趡
趢
趤
趦
趧
趩
趪
趫
趬
趭
趮
趯
趰
趱
趲
趷
趻
趼
趽
趿
跀
跅
跇
跈
跉
跊
跍
跐
跒
跓
跞
跫
跬
跽
踅
踇
踈
踋
踍
踎
踑
踓
踔
踕
踖
踗
踘
踙
踚
踛
踜
踠
踣
踤
踥
踦
踧
踨
踫
踬
踭
踰
踲
踳
踶
踷
踸
踺
踼
踿
蹀
蹁
蹃
蹅
蹆
蹌
蹎
蹏
蹐
蹕
蹖
蹗
蹘
蹜
蹝
蹞
蹥
蹧
蹨
蹪
蹫
蹮
蹯
蹰
蹳
躐
躔
躘
躙
躚
躛
躜
躝
躞
躟
躠
躡
躢
躣
躤
躥
躦
躧
躨
躩
躭
躮
躰
躱
躳
躴
躵
躶
躷
躸
躹
躻
躼
躽
躾
躿
軂
軄
軅
軆
軇
軈
軉
軎
軏
軓
軔
軕
軖
軗
軘
軙
軚
軛
軜
軝
軞
軠
軡
軣
軤
輀
輁
輂
輄
輅
輆
輇
輈
輊
輋
輌
輍
輎
輏
輐
輑
輖
輗
輘
輚
輜
輞
輡
輢
輣
輤
輥
輦
輧
輨
輫
輰
輱
輲
輳
輴
輶
輷
輹
輺
輽
轁
轂
轃
轠
轡
轢
轣
轤
轥
轪
轱
轳
轵
轷
轹
轺
轾
辀
辁
辌
辒
辚
辝
辠
辡
辢
辤
辥
辧
辪
辬
辴
辵
辶
辷
辸
辿
迀
迃
迉
迊
迌
迍
迏
迒
迓
迕
迖
迗
迚
迠
迡
迧
迬
迮
迯
迵
迶
迻
迼
迾
迿
逇
逈
逌
逎
逑
逓
逘
逭
逯
遄
遌
遖
遘
遚
遝
遟
遡
遤
遦
遧
遪
遫
遬
遯
遰
遱
遳
遹
遾
邅
邆
邉
邌
邍
邎
邐
邒
邔
邖
邘
邚
邜
邞
邟
邤
邥
邧
邩
邫
邭
邲
邴
邷
邼
邿
郀
郂
郇
郐
郛
郲
郳
郶
郹
郺
郻
郼
郿
鄀
鄁
鄃
鄅
鄆
鄇
鄈
鄊
鄋
鄌
鄍
鄎
鄏
鄐
鄑
鄓
鄕
鄖
鄗
鄘
鄚
鄛
鄝
鄟
鄠
鄡
鄤
鄥
鄦
鄨
鄩
鄪
鄫
鄬
鄮
鄳
鄴
鄵
鄶
鄷
鄸
鄹
鄻
鄼
鄽
鄾
酀
酁
酂
酃
酄
酅
酎
酏
酡
酤
酲
酴
酹
酽
酾
醄
醆
醈
醊
醏
醑
醓
醔
醕
醖
醗
醘
醙
醝
醟
醠
醡
醢
醤
醥
醦
醧
醨
醩
醭
醰
醲
醳
醵
醸
醹
醼
醽
醾
醿
釂
釃
釄
釅
釆
釈
釒
釓
釔
釕
釖
釙
釚
釛
釞
釟
釠
釡
釢
釤
鈁
鈂
鈄
鈇
鈈
鈊
鈋
鈌
鈏
鈐
鈑
鈒
鈓
鈖
鈗
鈘
鈙
鈚
鈛
鈜
鈝
鈟
鈠
鈢
鈤
鈥
鈧
鈨
鈩
鈫
鈬
鈭
鈮
鈯
鈳
鈵
鈷
鈸
鈹
鈻
鈼
鈽
鈿
鉁
鉂
鉃
鉡
鉢
鉣
鉦
鉧
鉨
鉩
鉪
鉫
鉬
鉭
鉮
鉯
鉰
鉱
鉲
鉳
鉵
鉶
鉷
鉸
鉹
鉺
鉼
鉽
鉾
鉿
銁
銂
銄
銆
銇
銈
銌
銎
銐
銒
銔
銙
銚
銝
銞
銟
銠
銡
銢
銣
銤
銥
銦
銧
銨
鋇
鋈
鋉
鋊
鋋
鋌
鋍
鋎
鋏
鋐
鋑
鋓
鋔
鋕
鋖
鋗
鋘
鋚
鋛
鋜
鋝
鋞
鋟
鋠
鋡
鋢
鋣
鋥
鋦
鋧
鋨
鋫
鋬
鋭
鋮
鋯
鋱
鋲
鋳
鋴
鋵
鋶
鋹
鋽
鋾
鋿
錀
錁
錂
錃
錅
錆
錇
錈
錉
錥
錧
錪
錬
錭
錰
錱
錴
錵
錷
錸
錹
錺
錻
錼
錽
錿
鍀
鍁
鍂
鍃
鍄
鍅
鍆
鍇
鍌
鍎
鍏
鍐
鍑
鍒
鍓
鍔
鍕
鍗
鍘
鍙
鍜
鍝
鍞
鍟
鍡
鍢
鍣
鍤
鍦
鍧
鍨
鍩
鍪
鍬
鎇
鎈
鎍
鎎
鎐
鎑
鎓
鎕
鎘
鎙
鎛
鎜
鎝
鎞
鎟
鎠
鎡
鎢
鎣
鎤
鎥
鎦
鎨
鎩
鎪
鎭
鎯
鎰
鎱
鎴
鎵
鎶
鎷
鎹
鎺
鎻
鎼
鎽
鎾
鎿
鏀
鏁
鏂
鏃
鏄
鏆
鏇
鏋
鏌
鏎
鏪
鏫
鏬
鏭
鏮
鏯
鏰
鏱
鏲
鏳
鏴
鏵
鏶
鏷
鏸
鏹
鏺
鏻
鏼
鏿
鐀
鐁
鐂
鐃
鐄
鐅
鐆
鐇
鐈
鐉
鐊
鐋
鐌
鐍
鐎
鐏
鐐
鐑
鐒
鐓
鐔
鐕
鐗
鐙
鐚
鐛
鐜
鐝
鐞
鐟
鐠
鐡
鐢
鐣
鐤
鐥
鐦
鐧
鐨
鐩
鐪
鐫
鐬
鐭
鐾
鑋
鑌
鑍
鑎
鑓
鑔
鑖
鑗
鑘
鑙
鑛
鑜
鑝
鑞
鑟
鑠
鑡
鑢
鑤
鑥
鑦
鑧
鑨
鑩
鑪
鑬
鑭
鑮
鑯
鑱
鑳
鑶
鑷
鑸
鑹
鑺
鑻
钁
钃
钄
钅
钆
钋
钌
钐
钑
钔
钖
钪
钫
钬
钭
钶
钷
钸
铇
铏
铑
铒
铓
铔
铕
铘
铚
铞
铥
铪
铫
铴
铷
铹
铼
铽
锃
锇
锊
锍
锎
锒
锓
锔
锕
锖
锘
锝
锞
锠
锧
锨
锩
锪
锫
锬
锱
锸
锼
锾
锿
镄
镅
镆
镎
镔
镘
镙
镟
镡
镢
镤
镥
镨
镩
镪
镱
閇
閊
閌
閍
閐
閕
閖
閗
閙
閚
閛
閜
閝
閟
閠
閤
閦
閧
閪
閫
閬
閭
閯
閰
閳
閴
閵
閶
閸
閺
閼
閽
閿
闀
闁
闂
闃
闄
闅
闈
闉
闋
闬
闶
阄
阋
阌
阍
阒
阓
阘
阛
阝
阞
阠
阢
阣
阤
阥
阦
阧
阨
阩
阫
阭
阯
阰
阷
阸
阹
阺
阼
阽
阾
陁
陃
陊
陎
陏
陑
陒
陓
陔
陖
陗
陘
陙
陜
陥
陦
陧
陫
陭
陮
陱
陴
陹
陻
陾
陿
隀
隄
隇
隌
隲
隳
隵
隹
隺
隿
雂
雃
雈
雊
雐
雓
雔
雗
雘
雚
雝
雟
雡
雤
雥
雦
雧
雫
雬
雭
雮
雱
雴
雵
雸
雼
雽
雿
霂
霃
霋
霌
霐
霒
霔
霕
霗
霘
霙
霚
霝
霟
霠
霡
霪
靃
靅
靉
靊
靋
靌
靍
靎
靏
靐
靑
靔
靕
靗
靘
靝
靟
靣
靤
靧
靨
靪
靫
靬
靮
靯
靰
靲
靵
靷
靸
靹
靻
靽
靾
靿
鞁
鞂
鞃
鞄
鞆
鞇
鞎
鞐
鞒
鞓
鞔
鞖
鞗
鞙
鞚
鞛
鞜
鞝
鞞
鞯
鞲
鞴
韀
韂
韃
韄
韅
韇
韈
韉
韊
韎
韏
韐
韑
韒
韔
韕
韖
韗
韘
韙
韚
韛
韝
韞
韟
韠
韢
韣
韥
韨
韮
韯
韰
韱
韲
韴
韷
韸
韹
韺
韼
韽
韾
頀
頄
頇
頉
頊
頋
頍
頎
頏
頪
頬
頯
頱
頲
頳
頴
頶
頺
頽
頾
頿
顀
顁
顂
顃
顄
顅
顇
顈
顉
顊
顋
顐
顑
顓
顕
顖
顙
顚
顜
顝
顟
顠
顡
顢
顣
顤
顥
顦
顨
顪
顬
顭
顮
顸
颃
颟
颥
颷
颹
颺
颽
颾
颿
飀
飁
飂
飃
飅
飇
飈
飉
飊
飋
飌
飍
飐
飑
飔
飖
飗
飜
飝
飠
飡
飧
飫
飭
飰
飱
飳
飴
飶
飷
飸
飹
飺
飻
餀
餂
餆
餇
餈
餍
餥
餦
餧
餩
餪
餫
餬
餭
餯
餰
餱
餲
餳
餴
餷
餸
餹
餺
餻
餼
餿
饀
饁
饂
饃
饄
饆
饇
饉
饊
饎
饏
饓
饔
饖
饘
饙
饚
饛
饠
饡
饢
饣
饤
饦
饩
饫
饳
饸
饻
饾
馂
馃
馇
馉
馊
馌
馓
馘
馵
馶
馷
馺
馻
馼
馽
馾
馿
駀
駂
駃
駇
駈
駉
駊
駋
駌
駍
駎
駏
駑
駓
駔
駖
駗
駘
駙
駚
駜
駞
駟
駠
駡
駢
駣
駤
駥
駦
駧
駨
駩
駪
駫
駬
駯
駲
駳
駴
駵
駶
駷
駹
駺
騕
騖
騘
騚
騛
騜
騝
騞
騟
騠
騡
騢
騣
騤
騥
騦
騧
騩
騪
騫
騬
騭
騮
騯
騱
騲
騳
騴
騵
騶
騸
騹
騺
騻
騼
騽
騾
騿
驁
驂
驃
驄
驆
驇
驈
驉
驋
驎
驐
驑
驓
驔
驖
驙
驵
骀
骒
骓
骟
骩
骪
骬
骭
骮
骱
骲
骳
骴
骵
骹
骻
骽
骾
骿
髃
髄
髆
髇
髈
髉
髊
髍
髎
髐
髑
髕
髗
髚
髛
髜
髝
髞
髟
髠
髢
髣
髤
髥
髧
髨
髫
髬
髰
髱
髲
髵
髶
髷
髸
髼
髽
髾
髿
鬀
鬂
鬅
鬇
鬈
鬏
鬩
鬪
鬫
鬬
鬭
鬮
鬯
鬰
鬳
鬴
鬵
鬶
鬷
鬸
鬹
鬺
鬽
鬾
鬿
魀
魆
魈
魊
魋
魌
魎
魐
魒
魓
魕
魖
魙
魜
魞
魠
魡
魤
魦
魧
魩
魪
魬
魰
魱
魲
魴
魵
魶
魸
魹
鮗
鮘
鮙
鮚
鮛
鮝
鮞
鮟
鮠
鮡
鮢
鮣
鮤
鮥
鮧
鮩
鮫
鮯
鮰
鮱
鮲
鮴
鮵
鮶
鮸
鮹
鮻
鮼
鮽
鮾
鮿
鯀
鯁
鯂
鯃
鯄
鯅
鯇
鯈
鯋
鯌
鯍
鯎
鯏
鯐
鯑
鯓
鯔
鯘
鯙
鯚
鯜
鯸
鯹
鯺
鯻
鯼
鯾
鯿
鰀
鰁
鰂
鰃
鰄
鰅
鰆
鰇
鰈
鰉
鰊
鰋
鰌
鰎
鰏
鰐
鰑
鰒
鰔
鰕
鰖
鰗
鰘
鰙
鰚
鰝
鰞
鰡
鰢
鰤
鰥
鰦
鰧
鰨
鰩
鰪
鰫
鰬
鰯
鰰
鰱
鰴
鰵
鰶
鰷
鰸
鰹
鱘
鱙
鱚
鱛
鱜
鱝
鱞
鱟
鱠
鱡
鱢
鱣
鱥
鱦
鱧
鱨
鱩
鱪
鱫
鱭
鱮
鱯
鱰
鱱
鱲
鱴
鱵
鱶
鱹
鱺
鱻
鱽
鱾
鲃
鲆
鲋
鲌
鲐
鲒
鲓
鲔
鲕
鲗
鲘
鲙
鲚
鲝
鲞
鲡
鲣
鲥
鲦
鲩
鲪
鲬
鲭
鲮
鲯
鲰
鲴
鲹
鲺
鲻
鲼
鲽
鲾
鲿
鳀
鳁
鳂
鳆
鳇
鳈
鳉
鳊
鳋
鳎
鳐
鳑
鳓
鳘
鳚
鳠
鳡
鳢
鳣
鳾
鳿
鴀
鴃
鴄
鴅
鴆
鴇
鴈
鴊
鴋
鴌
鴍
鴎
鴏
鴐
鴑
鴓
鴔
鴖
鴗
鴘
鴙
鴚
鴜
鴝
鴟
鴠
鴡
鴢
鴣
鴤
鴥
鴧
鴩
鴪
鴫
鴬
鴭
鴮
鴯
鴰
鴱
鴲
鴵
鴶
鴷
鴸
鴹
鴼
鴽
鴾
鵀
鵂
鵟
鵠
鵢
鵤
鵥
鵦
鵧
鵨
鵩
鵪
鵫
鵭
鵮
鵯
鵱
鵳
鵴
鵵
鵶
鵷
鵸
鵹
鵺
鵻
鵼
鵽
鵿
鶀
鶁
鶂
鶃
鶅
鶆
鶇
鶈
鶉
鶋
鶍
鶎
鶏
鶐
鶒
鶓
鶔
鶕
鶗
鶙
鶚
鶜
鶝
鶞
鶟
鶠
鶢
鶣
鶾
鷀
鷂
鷃
鷅
鷆
鷇
鷈
鷉
鷊
鷋
鷌
鷍
鷎
鷏
鷐
鷑
鷒
鷓
鷔
鷕
鷖
鷘
鷙
鷚
鷛
鷜
鷝
鷟
鷠
鷡
鷢
鷣
鷤
鷥
鷦
鷧
鷨
鷩
鷪
鷬
鷭
鷮
鷯
鷱
鷳
鷵
鷶
鷷
鷸
鷻
鷽
鷾
鷿
鸁
鸂
鸃
鸤
鸧
鸰
鸲
鸴
鸶
鸸
鸹
鸺
鸻
鸼
鹀
鹁
鹆
鹇
鹋
鹍
鹎
鹐
鹒
鹓
鹔
鹖
鹙
鹛
鹝
鹟
鹠
鹡
鹢
鹣
鹥
鹨
鹩
鹪
鹮
鹯
鹱
鹲
鹴
鹶
鹷
鹸
鹺
鹾
麀
麁
麃
麄
麆
麇
麈
麉
麊
麌
麍
麎
麏
麐
麑
麔
麕
麖
麘
麙
麚
麛
麜
麞
麠
麡
麢
麣
麤
麧
麨
麫
黉
黐
黓
黕
黖
黗
黙
黚
黡
黢
黣
黤
黦
黧
黪
黫
黬
黭
黮
黰
黱
黲
黳
黵
黷
黸
黹
黺
黽
黾
黿
鼀
鼁
鼂
鼃
鼄
鼅
鼆
鼉
鼊
鼌
鼍
鼏
鼑
鼒
鼔
鼖
鼗
鼘
鼙
鼚
鼛
鼝
鼞
鼟
鼡
鼢
鼣
鼥
鼦
鼧
鼨
鼩
鼪
鼫
鼭
鼮
鼯
鼰
鼱
鼲
鼷
鼽
齄
齑
齖
齘
齙
齛
齜
齝
齞
齟
齠
齤
齥
齧
齨
齩
齪
齫
齬
齭
齮
齯
齲
齳
齴
齵
齶
齷
齸
齹
齺
齻
齼
齽
齾
龀
龁
龃
龆
龇
龉
龎
龑
龒
龓
龖
龗
龘
龝
龞
龠
龡
龣
龤
龥
…
—
’
‘
圸
燞
燣
齀
驨
碮
誝
嘝
藲
烠
烢
錊
艬
錗
稦
鎀
橃
橠
橩
媀
窲
沀
袳
毃
逧
擟
軴
墤
鲄
繥
鯯
蜬
蜸
豄
螪
鰠
賉
欪
秴
熶
薘
鮺
諩
鮇
啛
孍
孎
孡
尯
茥
紻
鍯
綨
鷼
爉
匛
馟
奙
淭
刏
闙
膭
睷
鬜
縇
攼
鳼
鳵
鞤
隚
霥
礗
礏
盢
鵚
枩
棇
棴
朎
朠
斺
訨
蕓
蕿
碊
欰
藺
藸
怶
峀
烡
烵
烾
銱
銿
銯
魢
鈱
屪
櫺
蠬
蠿
荕
袶
歑
疺
罞
罜
鸙
擵
挳
腗
腞
陠
陯
轛
蚇
繱
繌
鼶
迲
僌
僗
敊
豍
豃
澑
螹
鱋
萇
諣
囌
蔙
篐
鮏
譠
譟
譈
芞
芁
穁
懢
猅
鏾
紴
鍻
頕
郮
黋
黊
襎
襊
犻
汬
肞
揨
揓
釼
酭
酑
塛
塖
縍
鳫
矵
鞱
鑏
礊
鵆
幆
朚
朷
砋
燘
釸
藡
藽
怋
笚
鯣
魝
屗
屸
嬐
珿
咰
鼸
鼤
驏
籄
訮
菳
擏
軪
摢
摗
璖
璓
埩
溮
靀
澊
螷
螡
隬
弲
萈
扟
扝
鑉
梋
蒘
蒏
鴁
柪
蔅
镼
霼
薓
霻
筗
篞
譇
芆
鬞
猆
鏅
慛
玂
鍹
鍿
婰
匞
扗
馦
釮
奛
揊
瓗
隯
齂
斀
睶
鳭
矆
鞷
隫
盓
贕
葝
圢
燱
燢
訤
碖
驠
驞
嘪
鯴
稬
稪
諹
荲
沊
戂
娻
歏
糔
糋
鸗
蘒
蘕
摪
翴
蚅
繷
旇
僋
僘
侰
豒
螼
鶷
鑈
梇
蒖
跾
瞃
嶨
汻
篬
岼
譛
孉
孷
鏉
樢
樷
綥
殙
婱
郬
餔
鉔
汷
脺
瓾
辳
睯
鉞
蛕
擨
霵
霯
侱
礘
礄
廩
燸
桰
焸
怴
烲
烸
烞
艵
飿
橨
緰
牫
籗
菨
覵
鸄
挕
驝
腢
腣
腏
璑
璌
忚
轋
溄
旾
鼵
僁
敥
敪
侺
螶
筂
扖
蒑
跠
偋
鯤
薃
薞
篟
鮅
譋
謥
穪
紶
颴
厑
綛
綤
頧
匩
鉊
襸
肒
揘
揇
餣
瓽
瓕
酛
塎
睧
忊
癋
癑
濧
濽
昗
葾
枤
麮
燛
燲
閅
桳
碬
笍
魻
蔖
橲
橵
顰
籆
疛
軲
凚
翪
墲
轚
蚈
筄
洡
蜤
蜛
鰿
鱳
萕
硦
帍
蔛
杒
嶣
嶱
镺
镾
汿
椯
鮂
鮳
岴
哬
紨
竀
慩
頥
匲
黀
釲
汥
脦
隁
捗
儾
矎
隢
鄿
愘
圱
圷
訡
桽
鯟
乊
鈶
嬮
稴
驣
蠫
橶
荢
鼺
錔
袸
閄
菬
甈
狣
褽
糃
掋
逳
逫
琒
醶
翆
轈
鼿
蜟
筁
欴
鶛
鑂
嶯
嶡
嶹
鯝
鋷
諎
汢
篏
篕
檼
鏏
哣
鍷
頚
匟
扴
汼
揱
脪
虴
酜
斍
睤
儑
儶
縒
貏
貇
钀
葿
葥
鵛
鐯
燗
棏
槯
笅
鯦
峂
銉
讛
巁
絋
飵
橭
侟
牰
菷
狵
褼
褹
覶
罺
腅
璔
蚉
繴
鰳
鶮
鶨
扚
柨
跿
騌
瀳
篊
篧
譝
鏙
鏧
慗
嫧
衇
婜
郖
餝
鉖
扲
釰
滊
縅
縏
鞊
貱
倲
礝
麯
禯
圚
颵
怑
怌
峊
讅
錑
娾
疘
罤
腪
臦
螕
鰮
鶶
焂
薚
諯
芅
穭
哠
哯
匒
餁
撍
釾
淣
刉
酟
斳
睴
睮
滜
縀
縎
蝁
湬
癛
廎
贒
鵗
燯
笿
銴
艪
獡
獿
獱
稄
稢
荴
娝
糝
琑
凙
臫
臗
迱
狾
漊
萀
鶭
鶑
蒆
硥
柖
詾
霺
椲
篈
鏒
鏣
婸
泏
匫
匷
鉐
鉘
姰
踾
遈
瓵
酨
洘
鬕
鑐
濜
礣
鐹
圶
嚛
桞
誜
誏
藼
荰
抁
顩
籕
甐
狏
鸉
鸅
琟
腝
腁
腂
忂
蚏
蚗
繨
臱
臩
蜦
蜵
徎
埣
庴
扨
蒚
焥
鯠
鯕
崥
岾
譂
啳
孞
慔
岻
婯
畣
匧
馲
馢
馪
襓
擳
揦
塃
矺
谻
貵
蒠
濭
礋
蕟
誙
嵦
藵
謣
愮
蠺
毻
歒
逽
逪
挮
蘌
腛
翨
璢
轐
眪
蜠
侼
萗
鶽
鑵
焃
麳
薎
崵
霛
鬁
鏍
郠
郥
郱
裃
釳
淎
浱
塇
滼
鞽
忴
蝺
盰
廦
潐
朜
砐
燰
魗
魳
唡
蠾
荹
窽
甊
疉
覥
罧
挩
琗
蘓
臰
敱
敃
赯
蒒
惥
椊
岶
岮
穻
茐
婫
匤
裄
襒
粣
肁
揙
脮
搙
鳹
隡
鱑
癐
昅
廗
鵋
鐴
碆
怰
烣
獶
稰
橏
荶
錎
袲
牑
褑
鸈
軯
凣
繧
侳
鋺
硞
帣
蔏
騈
譐
謯
孠
哘
茮
慏
厱
鍼
婾
淕
瓨
鳻
鬠
砊
巸
桻
碈
嘕
怘
菺
駮
饝
蘁
腜
轌
繵
臒
敄
豅
筕
漌
熢
芕
鬝
慖
玐
頙
襐
擯
撱
揌
孶
虭
睲
鬉
鬔
鬎
鞪
暿
癠
鐖
桺
碒
怓
鯬
鯒
銸
艞
櫗
蠩
蠯
蠥
蠳
蠷
歋
糆
鸖
琘
蘉
翍
鶌
赥
蔢
鯞
薕
譑
猭
鏩
紖
痑
遻
汓
躗
躖
捇
鳪
朆
碅
颲
誋
槕
怷
怸
楲
橸
籉
糂
疷
覸
罬
驡
翶
鰜
鶪
硶
薡
騆
嗧
綩
匶
馰
馯
隓
隝
鱃
蒊
濴
礔
丳
鵃
鐽
圲
訰
悎
怚
烮
喡
獹
荱
袔
蹸
軶
摙
翭
轀
臸
僐
蜳
萅
仯
筞
篖
寎
芀
哅
洓
馣
肨
齃
睰
矒
癊
濸
盳
趞
禙
圥
嵍
嘙
烳
錖
娷
逩
軬
摷
螴
蔉
嶵
諽
鮷
恮
郔
黆
釶
踃
襋
釺
酻
愡
丒
煾
楴
毄
狧
逜
覻
鸋
繠
梄
蒃
瀂
鮬
孹
殸
婹
頨
郍
餢
馜
釯
躕
淗
闛
膁
睼
礛
圤
砎
砈
桋
碤
嘊
笰
銾
橾
緢
籢
疧
逿
軵
繬
駽
蜹
螔
俉
萓
鶊
扸
庪
磤
懕
綅
汒
淊
齱
矨
忟
霮
礥
丣
幓
圗
鯩
笓
峅
魿
珢
珼
珻
蠽
籏
溳
蚔
鼜
臕
駾
侸
豏
瞂
嶬
惌
懜
慞
泧
鉒
馤
肵
躌
躒
搳
浲
睻
攩
癏
癗
圡
砏
訷
訁
桚
嵱
乑
窼
戱
涶
蜲
躈
犕
撜
脟
鳮
湪
蘐
貈
濔
蟃
礕
礟
棿
朤
燆
燍
訦
桸
笽
楰
鎒
蠰
橤
窹
傆
吤
娪
蹽
鸏
醱
陚
僓
蜽
漇
跮
跙
岰
竧
餶
躆
闝
塐
鳺
傂
濨
濿
鵅
鐱
圛
棙
朖
斦
銋
讘
蔤
吂
岯
掜
覤
醷
繲
堥
僒
徸
漄
跁
霳
鮁
譒
芇
懠
樆
厸
匴
踄
奅
揗
淔
蛖
桾
颬
峈
憪
魼
荝
荺
袽
籘
毧
狤
凷
欙
璍
轞
駻
蜫
豘
豑
蒛
嗺
嗗
篗
樧
衁
肂
虷
鑁
癝
鵣
鐼
砃
碐
嘦
怐
烿
橰
橷
緪
媁
錝
傿
狿
糚
腃
翢
螎
埦
漅
蒁
瀀
啌
啈
猚
鍴
婡
匰
馧
踁
肕
揢
矲
鞼
圵
髺
齉
灥
獜
錋
娋
歍
凾
蜧
傰
賍
萉
庉
蒝
熑
鉓
芉
鏕
竃
莵
奆
酼
齇
睭
隒
鱖
濲
訩
嘨
櫹
甋
糦
琓
摱
轙
鴺
譣
栺
鬤
畨
揝
捝
鑀
蝹
霩
濹
禗
砄
怢
鎁
籚
狪
敶
俇
麷
騀
檴
孊
鷴
餄
奞
肦
鬦
濪
丯
嚂
嵑
怭
魛
飥
稯
蠦
橆
錏
轖
繟
渜
鶫
鯶
炪
鏚
哃
塕
忕
鱎
盇
禢
嘇
絑
櫎
飬
覭
罿
繈
螰
跜
磩
匔
耊
馚
馠
鉠
漐
擽
汮
奃
餋
酫
膶
蛡
谾
礉
昍
盙
怲
銗
橔
歁
糳
蜪
靱
赨
鮜
鮕
紟
餟
襂
淉
捖
酙
縳
昋
禝
槾
峏
艧
歀
罯
韤
鶥
柍
騐
侽
鹻
嫶
綡
郰
奜
塓
鬡
潈
桬
碯
笶
魽
媆
顳
娕
剬
繣
啋
孏
茿
郉
黂
擪
肰
刅
齚
隖
悥
誎
嘄
槏
魭
珆
糎
縓
驦
軭
軦
腒
欓
諪
椌
鍖
扷
釽
虰
閷
槷
獽
橺
荁
疞
翲
旤
敓
跦
跔
仛
篍
篣
謻
斢
鳱
癕
峐
峉
艭
荋
渹
晵
嶫
慹
鍫
揈
睄
滵
傮
鱁
愖
侾
藾
稸
袌
鸓
鱐
啨
啙
鏠
哫
樔
彞
颪
窵
狟
蹹
鸐
繤
臖
豓
鱆
鶿
鋻
椉
奝
肬
肣
搩
隑
儓
鱅
桟
嘓
閞
罼
螇
俔
鱏
蔆
霬
紽
埲
襏
脕
輬
酕
鳸
癦
嚾
怞
栯
栜
鰽
扡
柣
镹
譕
鞢
丬
鵌
圕
齍
齌
驘
欱
峑
烰
喯
鈆
鎅
橝
籈
菭
餙
°c
鲉
慜
隞
摰
禩
憭
畠
跶
龢
腘
饹
旳
銵
噉
炘
榊
谿
惢
燚
睺
捯
旼
魮
廋
珽
乛
鞮
摨
郞
婳
疍
崀
鋆
頔
綝
暠
拏
毐
鬘
鵙
獴
驩
麿
玏
毌
烺
汭
愬
倓
沄
窸
浥
塆
栒
廍
扞
婼
磻
瑱
罽
颎
盦
亹
汧
郕
魟
躄
郪
鲊
菴
蹚
鉏
锽
埽
滃
猇
镚
斝
寘
隷
筜
璈
釭
璆
廆
婠
艸
璂
缍
濊
翛
镈
鮈
淯
禔
茀
淏
橦
敺
巂
禟
訢
臵
楤
骕
麹
洑
袆
肸
盉
鮀
諲
塅
骃
禤
槑
廙
幪
琎
僎
溇
淛
繙
覩
甃
骎
窅
贠
嶲
濩
夬
逹
酺
匜
玆
倞
慥
蠵
韡
畬
镃
掤
呒
螣
貍
蹻
鱇
丏
纟
咥
薢
鱀
甇
朏
颋
錞
跂
賸
掞
禘
懽
鞬
煇
譌
廌
盩
綎
骙
倅
矻
霅
礐
頠
楢
蕡
翾
昚
蕰
臞
覈
漷
鲏
鳯
煕
沇
罥
忞
錡
窰
氿
欻
昐
楩
彟
楪
猓
佷
譞
袓
潏
頞
夐
昳
惔
塝
濶
緜
菫
锳
翫
臑
駰
嚈
癎
珵
狝
呴
戯
鸑
惓
郈
鞥
劄
楛
橚
扥
顒
廞
斉
泂
撝
掟
擧
訫
擿
槅
餽
湑
朅
濆
罝
溦
寖
铦
鼇
鬐
虒
桯
珹
呑
漼
晢
頵
裈
怹
篯
廕
醂
猋
鏐
渖
釿
镋
捽
臯
沕
焞
錤
骉
魣
咾
婬
皛
齎
颕
蟌
勑
桲
赪
猄
眜
蜺
鴂
僇
鸊
硙
騄
襃
怳
騑
奓
慙
鱓
荄
殑
僊
籙
騒
褆
刋
瑸
斿
盝
禨
惛
鴞
荅
呾
捒
隂
郚
峃
襌
碏
骍
堨
窋
煴
澁
酦
狌
斁
燋
頝
姁
涢
塁
跼
菼
枓
瓈
矰
塙
淲
轘
盌
媄
熥
酔
榃
讐
嫽
臜
刌
奀
紵
榅
艶
隤
皜
餗
崒
楶
孮
敻
扺
蒍
霨
旵
禖
琀
汚
睸
霤
埫
醁
丄
菻
荵
鍱
挐
哷
禥
朥
蘗
痖
奡
歊
鲖
儵
裀
昄
钘
瓟
搨
僜
砢
鞶
騃
鯱
揜
岺
狓
氂
蘂
揵
鬄
纚
嗢
髴
燝
妧
咺
枻
軿
嗛
悳
熇
旴
荈
繄
澒
棊
獏
淜
罣
粬
耇
怱
鳽
汫
瓛
蔊
蘘
嘒
淓
銲
丅
蝀
駸
阬
掱
烱
舘
鵄
厎
圝
諴
薗
隩
眴
楳
隃
逺
葰
厖
琄
箒
蹓
泬
罳
絅
蟇
圙
汸
哖
誐
耈
塀
豗
虵
俍
扽
唅
奨
澨
峘
膴
訸
橞
黁
矼
苼
欵
翬
厷
伃
丱
圴
赮
盨
鷁
贇
綯
菍
槇
憕
焄
疢
翯
璅
佹
豋
袿
筈
鵖
釪
沍
镵
鶲
盬
矴
慓
襍
鍠
旿
飮
砠
悁
梂
玓
窾
窫
濳
碻
敩
慇
貤
嘡
旽
闚
騋
糀
鶵
椄
釴
嶮
愒
謩
柤
墠
镮
揑
譓
銶
嶰
鴒
浟
琁
噭
稾
斵
泜
疭
赩
糥
赒
碕
睟
轓
蚖
牗
橪
豖
溎
匋
跱
湝
惙
帢
牞
剸
唶
臛
睠
鮎
呫
郙
璝
耏
慬
遆
颣
鮍
緼
廴
軨
擣
裋
罠
驤
瘈
矱
諟
乀
觭
枂
璄
鞡
梈
睱
玊
耎
踆
敧
沋
燀
熲
跘
镴
狶
敭
鸜
芐
礮
鮓
聼
杕
譔
玁
拃
奤
劘
璚
絰
酖
擫
荙
鯵
塈
蠧
皪
棬
嘠
跕
悆
渰
麪
裇
銛
燫
慭
絔
墫
闓
熿
嶪
蹍
鯭
匼
婻
呣
鐻
楧
豀
蔕
黇
朞
殽
鵾
閈
朘
袵
茷
牕
鉥
楬
籛
朒
呺
炰
嗙
穨
咵
腍
嶶
禠
鸝
甁
盫
丵
篘
黈
蟫
嶢
鞌
埻
扵
馎
歈
鶱
僔
艼
嶦
絓
踡
柎
鳒
鮋
煣
逴
悢
褾
婲
縗
鼈
汋
昖
狥
霫
朩
菶
綪
奣
廐
耑
铻
俌
戠
蠭
龂
臝
疐
藳
乄
棯
玃
輙
嚱
寗
蔄
琋
禫
擕
稺
璏
桝
埳
獦
駼
罏
棽
鑅
呰
繦
灩
蒄
啴
墐
鶄
庼
蹔
娒
埆
鶡
颻
娍
鉌
薾
鳷
轝
赗
璙
酓
萐
芔
柂
斄
睩
圞
驲
岨
扢
蝂
螘
袾
鬒
揔
糒
滳
潵
誔
迆
笒
嘐
騊
緾
翺
玅
谺
鋩
咮
韁
埿
鍚
凩
骦
忳
魨
逷
籞
塂
嚄
擭
袮
磈
襆
篢
罈
縦
侴
鴳
隮
礜
俆
杅
鶺
熯
玒
氼
垈
丗
禆
侹
骫
哢
霣
桱
轕
礑
塟
孒
瀁
砕
琕
篛
愰
鮄
凴
龏
藴
啍
戇
犮
窴
腄
歂
淰
禕
箘
婣
灂
薝
騂
冓
籝
蹷
絇
蜼
婥
輭
罛
薆
昑
彴
俋
扜
礧
鈡
櫑
鯥
癓
鰟
痁
鳛
獳
侫
搰
靭
麰
廔
鵞
琈
汳
鞾
扐
刄
鵎
碪
芧
觧
髩
贔
頟
泒
傛
蓧
跧
頖
忔
猒
嗃
飣
輮
鶤
臮
窌
窻
絁
籖
擥
縂
璕
塉
乁
訑
鷰
靁
緤
滽
焅
釬
篨
慠
馛
唲
圠
鶬
蚳
鍉
颩
闤
旲
谼
鸀
笵
逨
饟
溠
圫
棷
媃
鈅
儃
汃
鞿
繶
薖
譊
簨
俀
嚜
詷
丆
鱂
鬛
臙
摎
螾
槫
嗻
桮
魾
荌
鉎
玍
鏦
荗
篔
肈
汯
盭
蚑
吷
挦
琖
轇
蟅
霦
鉟
鯮
挌
捥
鞳
燨
僙
碢
腨
糢
讋
硍
鸒
酇
朣
鶸
僄
甎
蹛
誃
翏
疕
鞵
蜨
闗
彠
聻
臷
袚
湏
赬
漋
鯷
褌
檽
褘
蠪
蟞
禬
侭
纇
菿
鮊
嫳
奊
叅
嘥
傪
奌
鵁
颸
鬖
覌
竂
砆
讉
颭
蕝
垝
峿
疪
礠
銍
觕
凨
儱
罫
鼕
蔎
丷
綧
薠
悗
荎
笴
蒢
涒
瞆
禡
逰
揅
籒
璗
婤
姩
桭
狢
菾
儳
楱
衂
髳
儴
酘
磥
茖
荂
朌
啅
轒
癈
鱒
廧
鵕
拺
輠
浕
齕
臲
燖
楻
罙
齏
侲
揳
蛣
琌
滱
礚
碔
鏓
稡
頣
醻
禓
蟺
塜
芛
抅
鍭
栁
砅
鬋
澦
婄
菆
漍
箾
酳
襈
暀
肶
峎
襀
璛
諵
荍
腇
谽
蚃
燂
耉
叄
逥
痀
嫃
礩
漎
紾
蒓
螲
薶
蹡
鱤
夿
碨
筎
臠
禜
毉
嫤
軃
錍
隟
乆
鞧
鞉
蔇
闒
嘑
孨
曨
罶
銊
咶
鸇
鶹
嵁
颰
朙
蝃
淐
貹
酧
鳲
鑃
闠
慅
扙
蚘
媻
稭
輵
鞕
滺
螿
潬
筀
鍮
鮆
甖
紝
淟
侻
甞
絻
埥
蟉
蚆
罸
僈
燡
鉝
獮
桹
碞
莬
鬙
擖
軑
籑
怗
厹
罻
扠
瓓
糓
噣
魫
凧
谹
螮
悤
芚
驌
孼
璊
滶
朡
鷞
骔
蹢
萂
迋
筤
肧
楿
馡
霿
趠
跲
閮
潚
镸
抇
錩
郘
桼
諝
囃
荓
爯
覔
馞
欿
鋄
璒
陼
逬
愓
楎
甔
臤
鱊
軷
蒀
柺
縚
嶻
鴴
慦
冘
揕
浧
鉆
筓
裓
馹
汣
潨
遉
霱
稥
鬌
窱
痋
餜
薉
灧
跰
郋
暋
甀
甒
撢
籋
轗
洬
栧
嶤
蹾
廥
縆
鑚
漃
鷫
咹
稧
鋀
欐
屰
凬
縌
歅
鸎
盋
菵
艻
廘
诪
擩
頮
琔
饐
軰
噷
錣
猀
揟
淴
搲
絏
瓻
鳦
慒
匳
攠
鋂
燳
飤
肊
綟
氀
岹
昛
囋
礨
鱍
楖
誖
呌
瑽
孭
凥
犺
蔍
薐
僆
籇
啘
嵽
竁
匵
簹
餤
猂
齰
賵
桵
煆
芓
憖
銕
狦
鮦
鬑
踒
籊
萡
齗
雺
罭
朢
諨
抳
扤
躃
烖
蹱
輼
韍
靆
溓
朲
挜
煔
摡
矝
鍳
淢
怤
盠
滻
袯
謤
箵
潪
釱
凟
轜
蔃
汦
偞
峍
潝
憘
楥
拵
欶
濵
軧
鮌
蹵
餖
袺
孻
鳰
縿
昈
蜯
罦
梀
裌
訧
垨
礒
峗
烶
肙
肐
疌
撏
摋
孋
汱
黶
伒
壵
蔠
鱄
蔈
潎
嘫
躂
螱
轊
姺
垺
硜
殜
狫
臡
逤
癙
翿
翧
靇
霶
丠
闟
碦
鎋
勥
餠
轑
闑
訬
鈲
慉
颒
瑿
獖
蠮
跢
潀
庬
鸘
軱
矹
奍
溹
軮
旹
翷
賮
茒
怣
鍈
峆
覼
頩
溚
跴
鰺
槮
碝
椵
橴
嬟
儌
蒅
丩
篜
鯆
甂
覜
毼
馫
濎
睔
椷
窐
廇
怮
鵊
懰
譍
楺
馝
嫀
鞈
圂
廏
誗
鵐
耂
擸
玈
揥
甆
琂
糄
桪
鸌
鳤
薋
薍
烄
騉
妶
鎲
鮃
疿
橖
孴
琙
絭
歗
齆
蟁
鵏
鑕
縕
笻
殗
臢
哤
媂
鸕
笲
嶭
樏
凞
糤
蓲
贙
烻
洝
鞺
鞀
禭
鈃
昒
覰
凮
隥
醎
翽
鞻
僸
鰼
郩
橧
僤
釨
汵
麅
蟂
齅
丮
捔
籔
犆
鸆
俈
鵔
鋙
鵉
鬊
軥
疻
鼳
哊
覂
蘀
黅
攦
鑴
碙
肎
櫰
鞟
欞
瑲
狋
蜰
凢
楇
骣
袹
餕
漀
鶖
熅
紸
霢
迣
虸
鞸
絍
僃
誂
艣
齓
飦
諰
腤
槼
贑
趹
驫
蚄
鞹
糉
蠸
蠨
薥
嶴
婩
碫
餎
繮
慡
瘂
貟
鰛
嶏
帹
咷
覴
鏛
蚐
叞
鐷
鵘
猈
箞
嫨
糘
孲
袰
疜
褺
訲
圔
跥
潅
窧
腟
遀
緿
軁
翵
螧
瑼
榐
愩
揂
焁
稶
絈
蔜
秿
闦
閁
镻
镽
諻
銺
鉇
玌
肗
檷
遃
肔
鸔
鐰
禞
踀
鮔
頢
虲
擶
簤
蜶
軩
鉙
鱕
鵍
榁
篫
繛
絊
擜
糛
躀
癚
蒣
縙
蓔
貾
訠
闣
孧
矷
鶧
廜
踻
焀
蘈
麭
鎫
稫
胇
扻
郣
燤
蘏
睳
峌
轏
瞁
奟
鞰
瘺
嶩
昘
賆
埉
赺
礖
忰
藱
窷
圦
禣
蚎
烥
鶳
砇
怉
篎
嘋
鏨
銰
篒
鏔
騗
敋
郆
腉
揤
釫
疓
虶
碠
縃
軐
蝊
矪
蠴
齈
蔝
匘
祱
鑇
朰
濢
鱌
悘
訵
芖
硽
芌
烼
耛
猉
蚒
譗
揧
抙
肳
稵
稨
犥
窤
橳
燩
揋
襔
絉
釥
欳
疨
疩
蘃
蘍
匨
匬
瓹
瓸
瓼
嫎
覣
婨
翸
浌
盚
豧
鎉
鎃
昁
霴
螸
訯
醀
虳
跭
艈
砓
縔
誛
碂
梎
淧
鮉
怟
埐
萙
拁
稤
稩
錕
岲
脨
郌
鸍
鬗
橮
楾
襑
襅
甅
肑
諬
匢
匥
綣
勜
擹
覱
糑
蜭
氳
欦
盕
豂
貲
蔐
鼼
螦
钂
鳧
裍
朇
鐶
趥
闎
麬
麱
艢
鶦
誒
篋
鉜
枈
猌
筃
籎
榋
慤
銽
聜
聓
哛
鍸
鍽
軫
橬
燪
颫
甉
嬹
覹
覫
欍
疦
礢
緽
蘔
歿
痭
孯
蚙
馩
踂
僀
覮
糏
睵
軳
婽
婮
徿
螩
萒
薒
奒
奦
蒕
癘
縑
蜝
趶
濷
鑆
闧
綰
腖
鷄
鶻
餏
淥
怬
麶
鮖
誈
櫭
褿
燬
鯳
鯲
臚
覯
覐
穥
疶
蘎
郟
匓
馸
籅
擮
瓺
嫅
濰
錜
凲
徺
麲
萖
萔
裐
糐
縊
縋
霷
貺
蔒
賅
塋
贘
鳨
笷
蔋
濻
闞
讖
廤
誄
諶
嶳
憮
銼
錓
筙
驧
驪
慐
鏥
騔
銏
穳
肍
鍲
鍶
咼
檁
錌
鯡
諙
繰
絀
絎
覲
毥
釻
欼
銫
酠
酈
綳
隦
隭
黌
淶
鸛
薌
奩
繯
鎄
縉
蔞
袻
螻
贗
贜
鳬
闏
覨
鶰
誚
鵇
庍
耫
烪
鏝
碋
銩
驜
嶥
嶸
鏜
騇
鎆
鯧
鯢
鯗
鮐
鮒
鵈
櫫
魥
魺
窶
褨
橣
橯
襉
紼
頛
僉
歄
孌
虯
擝
搱
躎
糡
糣
錙
鼴
矃
轔
誑
蟈
癟
鉋
[UNK]
